{"0": "[PAD]", "1": "[UNK]", "2": "[CLS]", "3": "[SEP]", "4": "[MASK]", "5": "\u2581!", "6": "\u2581%", "7": "\u2581&", "8": "\u2581(", "9": "\u2581)", "10": "\u2581*", "11": "\u2581+", "12": "\u2581,", "13": "\u2581-", "14": "\u2581.", "15": "\u2581/", "16": "\u25810", "17": "\u25811", "18": "\u25812", "19": "\u25813", "20": "\u25814", "21": "\u25815", "22": "\u25816", "23": "\u25817", "24": "\u25818", "25": "\u25819", "26": "\u2581:", "27": "\u2581a", "28": "\u2581b", "29": "\u2581c", "30": "\u2581d", "31": "\u2581e", "32": "\u2581f", "33": "\u2581g", "34": "\u2581h", "35": "\u2581i", "36": "\u2581j", "37": "\u2581k", "38": "\u2581l", "39": "\u2581m", "40": "\u2581n", "41": "\u2581o", "42": "\u2581p", "43": "\u2581q", "44": "\u2581r", "45": "\u2581s", "46": "\u2581t", "47": "\u2581u", "48": "\u2581v", "49": "\u2581w", "50": "\u2581x", "51": "\u2581y", "52": "\u2581z", "53": "\u2581\u060c", "54": "\u2581\u061b", "55": "\u2581\u061f", "56": "\u2581\u0621", "57": "\u2581\u0622", "58": "\u2581\u0623", "59": "\u2581\u0624", "60": "\u2581\u0625", "61": "\u2581\u0626", "62": "\u2581\u0627", "63": "\u2581\u0628", "64": "\u2581\u0629", "65": "\u2581\u062a", "66": "\u2581\u062b", "67": "\u2581\u062c", "68": "\u2581\u062d", "69": "\u2581\u062e", "70": "\u2581\u062f", "71": "\u2581\u0630", "72": "\u2581\u0631", "73": "\u2581\u0632", "74": "\u2581\u0633", "75": "\u2581\u0634", "76": "\u2581\u0635", "77": "\u2581\u0636", "78": "\u2581\u0637", "79": "\u2581\u0638", "80": "\u2581\u0639", "81": "\u2581\u063a", "82": "\u2581\u063b", "83": "\u2581\u063c", "84": "\u2581\u063d", "85": "\u2581\u063f", "86": "\u2581\u0641", "87": "\u2581\u0642", "88": "\u2581\u0643", "89": "\u2581\u0644", "90": "\u2581\u0645", "91": "\u2581\u0646", "92": "\u2581\u0647", "93": "\u2581\u0648", "94": "\u2581\u0649", "95": "\u2581\u064a", "96": "\u0648", "97": "\u0646", "98": "\u0633", "99": "\u0627", "100": "\u0631", "101": "\u0643", "102": "\u0645", "103": "1", "104": "a", "105": "j", "106": "6", "107": "n", "108": "i", "109": "\u0628", "110": "\u0644", "111": "\u0634", "112": "\u0623", "113": "\u062f", "114": "\u064a", "115": "\u0647", "116": "\u0649", "117": "u", "118": "r", "119": "e", "120": "m", "121": "b", "122": "g", "123": "5", "124": "2", "125": "0", "126": "\u062e", "127": "\u062a", "128": "p", "129": "f", "130": "o", "131": "s", "132": "t", "133": "l", "134": "\u0641", "135": "y", "136": "q", "137": "\u062c", "138": "\u062d", "139": "\u0635", "140": "\u0639", "141": "8", "142": "7", "143": "3", "144": "z", "145": "\u0642", "146": "\u0629", "147": "\u0625", "148": "\u0636", "149": "\u0632", "150": "\u0637", "151": "\u0626", "152": "h", "153": "d", "154": "\u0624", "155": "9", "156": "4", "157": "\u0630", "158": "\u0622", "159": "k", "160": "x", "161": "\u0621", "162": "\u062b", "163": "v", "164": "w", "165": "\u063a", "166": "\u0638", "167": "c", "168": "\u063d", "169": "\u063f", "170": "\u063c", "171": "\u2581\u0627\u0644", "172": "\u0627\u0644", "173": "\u064a\u0629", "174": "\u2581\u0627\u0644\u0645", "175": "\u0627\u062a", "176": "\u2581\u0641\u064a", "177": "\u0627\u0646", "178": "\u0627\u0631", "179": "\u2581\u0645\u0646", "180": "\u064a\u0646", "181": "\u0627\u0645", "182": "\u0647\u0627", "183": "\u0644\u0649", "184": "\u064a\u0631", "185": "\u2581\u0648\u0627\u0644", "186": "\u0648\u0644", "187": "\u2581\u0627\u0644\u062a", "188": "\u0627\u062f", "189": "\u0631\u064a", "190": "\u2581\u0627\u0644\u0639", "191": "\u0631\u0627", "192": "\u0648\u0646", "193": "\u0644\u064a", "194": "\u0645\u0627", "195": "\u2581\u0627\u0644\u0623", "196": "\u0633\u062a", "197": "\u0644\u0627", "198": "\u0646\u0627", "199": "\u2581\u0639\u0644\u0649", "200": "\u0627\u0628", "201": "\u0648\u0627", "202": "\u0648\u0631", "203": "\u2581\u0623\u0646", "204": "\u2581\u0644\u0644", "205": "\u064a\u062f", "206": "\u0647\u0645", "207": "\u2581\u0627\u0644\u0633", "208": "\u064a\u0627", "209": "\u2581\u0627\u0644\u062d", "210": "\u2581\u0627\u0644\u0627", "211": "\u2581\u0627\u0646", "212": "\u0639\u062f", "213": "\u2581\u0627\u0644\u0642", "214": "\u0627\u0626", "215": "\u2581\u0628\u0627\u0644", "216": "\u2581\u0627\u0644\u0634", "217": "\u2581\u0639\u0646", "218": "\u0644\u0643", "219": "\u2581\u0627\u0644\u062c", "220": "\u2581\u0627\u0644\u062f", "221": "\u2581\u0627\u0644\u0628", "222": "\u0627\u0621", "223": "\u0648\u0645", "224": "\u064a\u0644", "225": "\u0631\u0628", "226": "\u0627\u0641", "227": "\u2581\u0645\u0639", "228": "\u0648\u062f", "229": "\u0631\u0629", "230": "\u0645\u0646", "231": "\u2581\u0627\u0644\u0641", "232": "\u0630\u0627", "233": "\u0642\u062f", "234": "\u062d\u062f", "235": "\u0639\u0629", "236": "\u0631\u0643", "237": "\u2581\u0627\u0644\u0646", "238": "\u2581\u0625\u0644\u0649", "239": "\u2581\u0648\u062a", "240": "\u0645\u0629", "241": "\u064a\u0633", "242": "\u0642\u0629", "243": "\u0645\u0644", "244": "\u2581\u0627\u0644\u062a\u064a", "245": "\u0628\u064a", "246": "\u0627\u0639", "247": "\u2581\u0627\u0644\u0625", "248": "\u2581\u0627\u0644\u0643", "249": "\u2581\u0627\u0644\u0644", "250": "\u0645\u062f", "251": "\u2581\u0648\u0623", "252": "\u0648\u0642", "253": "\u2581\u0627\u0644\u062e", "254": "\u064a\u062a", "255": "\u2581\u0627\u0644\u0630", "256": "\u0633\u0628", "257": "\u0644\u0645", "258": "\u2581\u0645\u0627", "259": "\u064a\u0645", "260": "\u2581\u0644\u0627", "261": "\u0641\u064a", "262": "\u0631\u0648", "263": "\u0628\u062f", "264": "\u0628\u0644", "265": "\u0628\u0631", "266": "\u2581\u0627\u0644\u0635", "267": "\u2581\u0628\u0646", "268": "\u0644\u0629", "269": "\u0627\u0631\u0629", "270": "\u0645\u0631", "271": "\u2581\u0627\u0644\u0648", "272": "\u2581\u0648\u0627", "273": "\u2581\u0645\u062d", "274": "\u2581\u0627\u0644\u0631", "275": "\u0646\u064a", "276": "\u0642\u064a", "277": "\u062d\u062a", "278": "\u0647\u062f", "279": "\u0639\u0644", "280": "\u0630\u0647", "281": "\u064a\u0639", "282": "\u0645\u0639", "283": "\u062c\u0644", "284": "\u2581\u0643\u0627\u0646", "285": "\u2581\u0648\u0642", "286": "\u062a\u0647", "287": "\u2581\u0639\u0644\u064a", "288": "\u0645\u0648", "289": "\u0643\u0646", "290": "\u0633\u064a", "291": "\u0631\u0641", "292": "\u0628\u0627", "293": "\u2581\u0627\u0644\u0649", "294": "\u2581\u0627\u0644\u0630\u064a", "295": "\u2581\u0623\u0648", "296": "\u2581\u0644\u0645", "297": "\u0644\u0627\u0644", "298": "\u062a\u064a", "299": "\u0627\u0646\u064a", "300": "\u062f\u064a", "301": "\u0643\u0631", "302": "\u0633\u0645", "303": "\u2581\u0627\u0644\u0637", "304": "\u062e\u0631", "305": "\u2581\u0627\u0644\u0645\u062a", "306": "\u2581\u0647\u0630\u0627", "307": "\u2581\u0648\u0647", "308": "\u064a\u0627\u062a", "309": "\u0633\u0627", "310": "\u0627\u0636", "311": "\u0635\u0644", "312": "\u0643\u0644", "313": "\u0639\u062a", "314": "\u2581\u0627\u0644\u062b", "315": "\u064a\u0641", "316": "\u062d\u0629", "317": "\u2581\u0643\u0644", "318": "\u0639\u0628", "319": "\u2581\u0627\u0633\u062a", "320": "\u0627\u0635", "321": "\u2581\u0628\u064a\u0646", "322": "\u0623\u0646", "323": "\u0626\u064a\u0633", "324": "\u2581\u0639\u0628\u062f", "325": "\u2581\u064a\u062a", "326": "\u2581\u0648\u0645", "327": "\u2581\u0628\u0639\u062f", "328": "\u0633\u0629", "329": "\u2581\u0647\u0630\u0647", "330": "\u0646\u0629", "331": "\u0646\u062a", "332": "\u0644\u0641", "333": "\u2581\u0627\u0644\u0644\u0647", "334": "\u0642\u062a", "335": "\u0631\u0636", "336": "\u0643\u062a", "337": "\u0647\u0631", "338": "\u062f\u0645", "339": "\u062c\u0647", "340": "\u0628\u0629", "341": "\u0633\u0644", "342": "\u0634\u0627\u0631", "343": "\u0632\u064a", "344": "\u2581\u0623\u0645", "345": "\u0639\u0627", "346": "\u062f\u0627", "347": "\u0645\u0627\u0644", "348": "\u0643\u0627\u0646", "349": "\u0648\u064a", "350": "\u0643\u0648\u0646", "351": "\u2581\u0645\u062a", "352": "\u0648\u0641", "353": "\u0631\u062a", "354": "\u064a\u0631\u0629", "355": "\u0648\u0644\u0629", "356": "\u2581\u0625\u0646", "357": "\u0648\u0633", "358": "\u2581\u0648\u0628", "359": "\u0627\u062f\u0629", "360": "\u062c\u0627", "361": "\u0627\u0644\u0645", "362": "\u0635\u0631", "363": "\u2581\u0645\u062f", "364": "\u2581\u0627\u0644\u0639\u0627\u0645", "365": "\u0642\u0627", "366": "\u2581\u0648\u0627\u0644\u0645", "367": "\u0637\u0629", "368": "\u0631\u0627\u0621", "369": "\u0628\u0627\u0631", "370": "\u0628\u0646", "371": "\u258120", "372": "\u2581\u0639\u0627\u0645", "373": "\u2581\u062e\u0644\u0627\u0644", "374": "\u0639\u0636", "375": "\u062f\u064a\u062f", "376": "\u0634\u0631", "377": "\u064a\u062b", "378": "\u0631\u064a\u0642", "379": "\u2581\u062a\u0639", "380": "\u0648\u0628", "381": "\u0641\u0627", "382": "\u062e\u062a", "383": "\u2581\u0647\u0648", "384": "\u062c\u062a", "385": "\u0648\u0636", "386": "\u2581\u0644\u062a", "387": "\u062f\u0631", "388": "\u0642\u0644", "389": "\u062f\u0629", "390": "\u2581\u0627\u0644\u064a", "391": "\u0648\u062c", "392": "\u2581\u0648\u0639", "393": "\u0627\u0644\u064a", "394": "\u062e\u0644", "395": "\u0637\u0644", "396": "\u2581\u0623\u064a", "397": "\u2581\u0648\u0627\u0644\u062a", "398": "\u0627\u0646\u064a\u0629", "399": "\u062b\u0631", "400": "\u2581\u0645\u0634", "401": "\u0627\u0631\u064a", "402": "\u0631\u062d", "403": "\u0627\u0631\u0627\u062a", "404": "\u0644\u0647", "405": "\u0631\u0643\u0629", "406": "\u0648\u0632", "407": "\u0648\u0639", "408": "\u2581\u0648\u064a", "409": "\u2581\u062a\u0645", "410": "\u0648\u0631\u0629", "411": "\u2581\u0648\u0633", "412": "\u2581\u0628\u0644", "413": "\u2581\u0630\u0644\u0643", "414": "\u0637\u0646", "415": "\u2581\u0639\u0628\u062f\u0627\u0644", "416": "\u2581\u062a\u062d", "417": "\u2581\u0645\u062d\u0645\u062f", "418": "\u0631\u0642", "419": "\u062e\u0635", "420": "\u0627\u062d", "421": "\u0646\u062f", "422": "\u2581\u0645\u0633", "423": "\u2581\u0643\u0645\u0627", "424": "\u2581\u0627\u0644\u0645\u062d", "425": "\u2581\u0641\u0649", "426": "\u2581\u0627\u0644\u0645\u0646", "427": "\u0641\u0633", "428": "\u0642\u0631", "429": "\u062c\u0644\u0633", "430": "\u0643\u0645", "431": "\u062f\u062f", "432": "\u2581\u0642\u0627\u0644", "433": "\u2581\u0644\u0647", "434": "\u0626\u0629", "435": "\u2581\u0627\u0644\u0623\u0645", "436": "\u2581\u0648\u0642\u0627\u0644", "437": "\u0627\u062f\u064a", "438": "\u2581\u064a\u0639", "439": "\u2581\u0648\u0644", "440": "\u0648\u0627\u062a", "441": "\u0641\u062a", "442": "\u2581\u062d\u064a\u062b", "443": "\u2581\u0627\u0644\u0627\u0646", "444": "\u2581\u062a\u062a", "445": "\u0627\u062c", "446": "\u0641\u0631", "447": "\u0648\u0649", "448": "\u0630\u0644\u0643", "449": "\u0627\u0641\u0629", "450": "\u2581\u0628\u0645", "451": "\u2581\u0648\u0632", "452": "\u062b\u0644", "453": "\u2581\u0628\u062a", "454": "\u2581\u0627\u0644\u063a", "455": "\u0648\u0631\u064a", "456": "\u258119", "457": "\u2581\u0631\u0626\u064a\u0633", "458": "\u0633\u064a\u0629", "459": "\u2581\u0627\u0644\u0647", "460": "\u2581\u0648\u062c", "461": "\u062a\u0647\u0627", "462": "\u2581\u0627\u0644\u0645\u0639", "463": "\u2581\u0623\u0643", "464": "\u2581\u0647\u064a", "465": "\u2581\u0627\u0644\u0639\u0631\u0628", "466": "\u2581\u0645\u0633\u062a", "467": "\u0648\u064a\u0629", "468": "\u2581\u0627\u0644\u0645\u062f", "469": "\u2581\u0648\u0644\u0627", "470": "\u2581\u0628\u062f", "471": "\u0648\u062a", "472": "\u2581\u0642\u0628\u0644", "473": "\u0627\u0644\u0629", "474": "\u0644\u064a\u0645", "475": "\u0639\u0648\u062f", "476": "\u0648\u064a\u062a", "477": "\u2581\u0627\u0644\u0645\u0633\u062a", "478": "\u2581\u0648\u0625", "479": "\u2581\u0645\u062c", "480": "\u2581\u0642\u062f", "481": "\u0643\u064a", "482": "\u062a\u0649", "483": "\u2581\u0644\u0644\u0645", "484": "\u2581\u0627\u0644\u0627\u0633\u062a", "485": "\u2581\u0627\u0644\u0645\u0633", "486": "\u0639\u064a", "487": "\u2581\u0648\u0646", "488": "\u2581\u0623\u0628", "489": "\u0631\u062c", "490": "\u0636\u0627", "491": "\u062d\u062f\u0629", "492": "\u2581\u0648\u0645\u0646", "493": "\u0637\u0642\u0629", "494": "\u2581\u0633\u064a", "495": "\u062d\u064a", "496": "\u0639\u0645", "497": "\u0643\u0648\u0645", "498": "\u0628\u062a", "499": "\u064a\u0646\u0629", "500": "\u2581\u0628\u0647", "501": "\u2581\u0648\u0641\u064a", "502": "\u2581\u062a\u0646", "503": "\u064a\u0632", "504": "\u0633\u0628\u0629", "505": "\u2581\u0648\u062d", "506": "\u2581\u063a\u064a\u0631", "507": "\u2581\u0628\u0627", "508": "\u2581\u0628\u062d", "509": "\u2581\u0627\u0644\u0632", "510": "\u2581\u064a\u0642", "511": "\u0627\u0644\u064a\u0629", "512": "\u2581\u0648\u0643", "513": "\u0648\u0627\u0646", "514": "\u2581\u0627\u0644\u0639\u0627\u0644\u0645", "515": "\u2581\u0639\u0644\u064a\u0647", "516": "\u2581\u0628\u0631", "517": "\u0623\u0633", "518": "\u0644\u0628", "519": "\u2581\u0639\u0646\u062f", "520": "\u0646\u0627\u0621", "521": "\u0631\u0627\u0626", "522": "\u2581\u0627\u0644\u062f\u0648\u0644", "523": "\u2581\u0627\u0644\u0622", "524": "\u0641\u0629", "525": "\u0645\u064a\u0639", "526": "\u064a\u0631\u0627", "527": "\u2581\u062d\u062a\u0649", "528": "\u2581\u0628\u0639\u0636", "529": "\u064a\u0628", "530": "\u2581\u062a\u0642", "531": "\u0648\u0629", "532": "\u2581\u0627\u0645", "533": "\u062a\u062e", "534": "\u062d\u0645\u062f", "535": "\u2581\u0645\u0624", "536": "\u2581\u064a\u0645", "537": "\u2581\u0627\u0644\u0627\u0645", "538": "\u2581\u0627\u0644\u0645\u0634", "539": "\u0641\u0636", "540": "\u2581\u0628\u0634", "541": "\u0641\u0639", "542": "\u0645\u0627\u0639", "543": "\u2581\u0648\u0642\u062f", "544": "\u0642\u0628\u0644", "545": "\u2581\u0648\u0647\u0648", "546": "\u0643\u0629", "547": "\u2581200", "548": "\u2581\u0627\u0644\u0646\u0627", "549": "\u2581\u0644\u064a", "550": "\u2581\u0627\u0644\u0627\u062a", "551": "\u0642\u0637", "552": "\u062d\u0627", "553": "\u2581\u0643\u0627\u0646\u062a", "554": "\u0642\u0627\u062a", "555": "\u0648\u0627\u0631", "556": "\u0646\u064a\u0629", "557": "\u2581\u0623\u0633", "558": "\u0631\u0643\u0632", "559": "\u0631\u064a\u0627\u0636", "560": "\u2581\u0633\u062a", "561": "\u2581\u062a\u0634", "562": "\u0635\u0628", "563": "\u062b\u0629", "564": "\u0642\u0628", "565": "\u0635\u0627\u062f", "566": "\u0633\u0637", "567": "\u2581\u0623\u0646\u0647", "568": "\u0631\u062f", "569": "\u0633\u0646", "570": "\u2581\u0647\u0646\u0627", "571": "\u2581\u062b\u0645", "572": "\u0642\u062f\u0645", "573": "\u0648\u0643", "574": "\u0632\u0629", "575": "\u0648\u0644\u0627", "576": "\u2581\u0627\u0644\u064a\u0648\u0645", "577": "\u0627\u0637", "578": "\u064a\u0634", "579": "\u2581\u0627\u0644\u0628\u0644", "580": "\u062c\u062f", "581": "\u0628\u0647", "582": "\u0627\u0635\u0629", "583": "\u062d\u0648", "584": "\u0633\u0644\u0627\u0645", "585": "\u062e\u0631\u0649", "586": "\u2581\u0648\u0643\u0627\u0646", "587": "\u0627\u0645\u0644", "588": "\u2581\u0639\u062f\u062f", "589": "\u0635\u0641", "590": "\u062d\u0627\u062f", "591": "\u0642\u064a\u0642", "592": "\u2581\u0627\u0644\u0639\u0645\u0644", "593": "\u2581\u0628\u0623\u0646", "594": "\u0631\u0627\u062a", "595": "\u0644\u0627\u0645", "596": "\u0627\u0628\u0629", "597": "\u2581\u0643\u0628", "598": "\u2581\u0648\u0641", "599": "\u0625\u0646", "600": "\u062f\u0627\u0631\u0629", "601": "\u2581\u0644\u0644\u062a", "602": "\u062c\u0645", "603": "\u2581\u0645\u062c\u0644\u0633", "604": "\u2581\u0627\u0644\u0645\u0624", "605": "\u0636\u0639", "606": "\u2581\u0641\u064a\u0647\u0627", "607": "\u0627\u0647", "608": "\u062c\u0629", "609": "\u064a\u064a\u0646", "610": "\u0631\u0645", "611": "\u2581\u0627\u0644\u0631\u0626\u064a\u0633", "612": "\u064a\u0627\u0646", "613": "\u062a\u0645", "614": "\u0633\u0627\u062a", "615": "\u2581\u0645\u0644\u064a", "616": "\u0643\u062f", "617": "\u0631\u0646", "618": "\u0636\u0627\u0641", "619": "\u2581\u0627\u0644\u0645\u0635", "620": "\u0631\u064a\u0629", "621": "\u2581\u0627\u0644\u0631\u064a\u0627\u0636", "622": "\u2581\u0627\u0644\u0633\u064a\u0627", "623": "\u0627\u0629", "624": "\u2581\u0639\u0645\u0644", "625": "\u0628\u0627\u062a", "626": "\u2581\u0627\u0644\u0643\u0648\u064a\u062a", "627": "\u2581\u0641\u064a\u0647", "628": "\u0648\u0627\u0642", "629": "\u0632\u064a\u0632", "630": "\u2581\u0644\u0643\u0646", "631": "\u2581\u062f\u0648\u0644", "632": "\u2581\u064a\u0648\u0645", "633": "\u0639\u064a\u062f", "634": "\u0641\u0627\u0639", "635": "\u2581\u0627\u0644\u0648\u0632", "636": "\u0644\u062a", "637": "\u2581\u0648\u0627\u0644\u0623", "638": "\u2581\u0627\u0644\u0623\u0648\u0644", "639": "\u0627\u0632", "640": "\u0628\u064a\u0629", "641": "\u2581\u0627\u062a", "642": "\u2581\u0627\u0644\u062d\u0643\u0648\u0645", "643": "\u0628\u0639", "644": "\u064a\u062c", "645": "\u0631\u0627\u0642", "646": "\u2581\u0623\u0639", "647": "\u0635\u062f", "648": "\u062b\u064a\u0631", "649": "\u0635\u0629", "650": "\u0647\u0645\u0627", "651": "\u0627\u0631\u062c", "652": "\u064a\u062e", "653": "\u0627\u0631\u064a\u0629", "654": "\u2581\u064a\u062c", "655": "\u2581\u0627\u0644\u0645\u0645", "656": "\u2581\u0644\u0623\u0646", "657": "\u2581\u0627\u0644\u0645\u0627\u0636", "658": "\u2581\u0648\u0627\u0646", "659": "\u063a\u064a\u0631", "660": "\u2581\u0644\u0623", "661": "\u0627\u0644\u0627\u062a", "662": "\u0631\u0648\u0639", "663": "\u0627\u0641\u0638", "664": "\u2581\u0639\u0645", "665": "\u0637\u0627\u0639", "666": "\u2581\u0628\u0647\u0627", "667": "\u0648\u0644\u0649", "668": "\u2581\u064a\u0646", "669": "\u064a\u0647", "670": "\u062c\u0646\u0629", "671": "\u2581\u0641\u062a", "672": "\u0642\u0627\u0621", "673": "\u2581\u064a\u062d", "674": "\u2581\u062a\u0623", "675": "\u2581\u0648\u0644\u0643", "676": "\u2581\u0646\u0638", "677": "\u2581\u0645\u0635", "678": "\u0647\u0644", "679": "\u0648\u0635", "680": "\u2581\u0627\u0644\u0636", "681": "\u0648\u0642\u0639", "682": "\u2581\u0627\u0644\u0645\u0646\u0627", "683": "\u2581\u0627\u0644\u0633\u0639\u0648\u062f", "684": "\u2581\u064a\u0643\u0648\u0646", "685": "\u062f\u064a\u062f\u0629", "686": "\u2581\u0627\u0644\u0639\u0631\u0628\u064a\u0629", "687": "\u062e\u062a\u0644\u0641", "688": "\u2581\u0645\u062b\u0644", "689": "\u2581\u0646\u0641\u0633", "690": "00", "691": "\u2581\u0644\u062f", "692": "\u0627\u0626\u0644", "693": "\u2581\u0647\u0646\u0627\u0643", "694": "\u2581\u062a\u0633", "695": "\u2581\u0648\u0634", "696": "\u2581\u0628\u0623", "697": "\u0627\u0645\u062c", "698": "\u064a\u0646\u0627", "699": "\u2581\u0645\u0642", "700": "\u064a\u0648", "701": "\u2581\u062e\u0637", "702": "\u062b\u0645", "703": "\u2581\u0627\u0644\u062a\u0639", "704": "\u2581\u062a\u0635", "705": "\u0645\u0647", "706": "\u0644\u0627\u062d", "707": "\u0637\u0627\u0644", "708": "\u0648\u0631\u064a\u0629", "709": "\u064a\u0644\u0629", "710": "\u0643\u064a\u0629", "711": "\u062c\u062a\u0645\u0627\u0639", "712": "\u2581\u062a\u062c", "713": "\u2581\u0627\u0644\u0623\u0633", "714": "\u062d\u062f\u062b", "715": "\u0627\u062e\u0644", "716": "\u0633\u0631\u0627\u0626", "717": "\u2581\u0625\u0644\u0627", "718": "\u2581\u0648\u0644\u0643\u0646", "719": "\u2581\u0625\u0644\u064a", "720": "\u2581\u0627\u0644\u0645\u062c", "721": "\u2581\u0633\u0646", "722": "\u0624\u0648\u0644", "723": "\u0627\u0646\u0648\u0646", "724": "\u0627\u0645\u0629", "725": "\u2581\u0639\u0628\u062f\u0627\u0644\u0644\u0647", "726": "\u0641\u0644", "727": "\u2581\u0627\u0644\u062a\u0646", "728": "\u2581\u062c\u0645\u064a\u0639", "729": "\u2581\u0645\u0648", "730": "\u0633\u064a\u0646", "731": "\u2581\u0648\u0627\u0644\u0639", "732": "\u062e\u0637", "733": "\u0631\u0627\u0641", "734": "\u0631\u0649", "735": "\u2581\u0644\u0647\u0627", "736": "\u2581\u062d\u062f", "737": "\u2581\u0644\u0646", "738": "\u2581\u0628\u0627\u0644\u0645", "739": "\u2581\u0627\u0639\u062a", "740": "\u2581\u0648\u062f", "741": "\u0628\u0631\u0627", "742": "\u062c\u062a\u0645\u0639", "743": "\u2581\u0627\u0644\u0630\u064a\u0646", "744": "\u2581\u0627\u0644\u0645\u0631", "745": "\u2581\u062a\u062f", "746": "\u2581\u0623\u0643\u062b\u0631", "747": "\u2581\u0643\u062a", "748": "\u0631\u0643\u0627\u062a", "749": "\u2581\u0623\u0628\u0648", "750": "\u0648\u064a\u0631", "751": "\u0643\u0627", "752": "\u2581\u0648\u0631", "753": "\u0627\u0628\u0627\u062a", "754": "\u2581\u0627\u0644\u0645\u062a\u062d\u062f\u0629", "755": "\u062d\u0631", "756": "\u0627\u0631\u064a\u062e", "757": "\u0631\u0627\u062c", "758": "\u2581\u0645\u0646\u0630", "759": "\u2581\u0641\u0625\u0646", "760": "\u2581201", "761": "\u2581\u0648\u0627\u0644\u0627", "762": "\u2581\u0623\u062d\u062f", "763": "\u2581\u0627\u0646\u062a", "764": "\u0639\u064a\u0629", "765": "\u2581\u0633\u0628", "766": "\u0642\u0649", "767": "\u0627\u0644\u062d", "768": "\u0634\u0641", "769": "\u0635\u0648\u0644", "770": "\u0638\u0631", "771": "\u2581\u064a\u0633\u062a", "772": "\u2581\u0627\u0646\u0647", "773": "\u0627\u0631\u0633", "774": "\u2581\u0627\u0644\u0645\u0648\u0627", "775": "\u2581\u062d\u0642", "776": "\u2581\u062a\u062d\u062a", "777": "\u0631\u0627\u0631", "778": "\u2581\u062d\u0648\u0644", "779": "\u2581\u0628\u0627\u0644\u062a", "780": "\u2581\u0627\u0644\u0645\u0648", "781": "\u2581\u0648\u0647\u064a", "782": "\u2581\u062f\u0648\u0646", "783": "\u0644\u0643\u0629", "784": "\u2581\u064a\u0627", "785": "\u2581\u0623\u0645\u0633", "786": "\u0648\u0627\u0621", "787": "\u0627\u0646\u0628", "788": "\u2581\u064a\u0645\u0643\u0646", "789": "\u0628\u0627\u0628", "790": "\u2581\u0627\u064a", "791": "\u2581\u0627\u0644\u0644\u0627", "792": "\u064a\u0646\u064a", "793": "\u2581\u0625\u0630\u0627", "794": "\u0643\u0631\u0629", "795": "\u0633\u0628\u0628", "796": "\u0630\u0643\u0631", "797": "\u2581\u0644\u062d", "798": "\u2581\u0641\u0631", "799": "\u2581\u064a\u062f", "800": "\u2581\u0627\u0648", "801": "\u2581\u062a\u0637", "802": "\u0628\u0644\u063a", "803": "\u0642\u0648\u0644", "804": "\u062d\u064a\u0629", "805": "\u0633\u0627\u0646", "806": "\u2581\u0645\u0646\u0647\u0627", "807": "\u0644\u0627\u0621", "808": "\u0639\u0627\u062a", "809": "\u0648\u0637", "810": "\u2581\u0627\u0644\u062a\u062c", "811": "\u2581\u062a\u0644\u0643", "812": "\u0631\u064a\u062f", "813": "\u2581\u0627\u0644\u0633\u0627\u0628", "814": "\u063a\u0645", "815": "\u0634\u062a", "816": "\u0638\u0645", "817": "\u2581\u0627\u0644\u0639\u0627\u0645\u0629", "818": "\u2581\u0627\u0644\u0648\u0642", "819": "\u2581\u0628\u0637", "820": "\u2581\u0645\u0631", "821": "\u0639\u0644\u0627\u0645", "822": "\u0636\u0645", "823": "\u0648\u0627\u0626", "824": "\u0637\u0641", "825": "\u2581\u0627\u0644\u0645\u0644\u0643", "826": "\u2581\u0648\u0630\u0644\u0643", "827": "\u0642\u062a\u0635\u0627\u062f", "828": "\u0631\u0628\u064a\u0629", "829": "\u2581\u0645\u0628\u0627\u0631", "830": "\u2581\u0627\u0644\u0634\u064a\u062e", "831": "\u2581\u0622\u062e\u0631", "832": "\u2581\u0627\u0644\u0631\u0627", "833": "\u2581\u0648\u0623\u0646", "834": "\u2581\u0627\u0644\u0648\u0637\u0646", "835": "\u0644\u064a\u0644", "836": "\u0630\u064a", "837": "\u0646\u0649", "838": "\u0627\u0642", "839": "\u2581\u064a\u062a\u0645", "840": "\u0633\u0631", "841": "\u0644\u0627\u0642", "842": "\u0647\u062f\u0641", "843": "\u0636\u064a", "844": "\u2581\u0627\u0644\u0623\u0645\u064a\u0631", "845": "\u0633\u0627\u0639\u062f", "846": "\u0627\u0644\u062a", "847": "\u0645\u0648\u0639\u0629", "848": "\u2581\u0648\u0644\u064a", "849": "\u0628\u0637", "850": "\u0641\u0636\u0644", "851": "\u0644\u0627\u0641", "852": "\u0643\u062a\u0648\u0631", "853": "\u0645\u0627\u0621", "854": "\u0639\u0632\u064a\u0632", "855": "\u0627\u0645\u0639\u0629", "856": "\u062f\u064a\u0629", "857": "\u0627\u0634", "858": "\u2581\u0623\u0648\u0644", "859": "\u2581\u0627\u0644\u0645\u0646\u062a", "860": "\u2581\u0623\u062f", "861": "\u0636\u0631", "862": "\u0636\u0627\u0641\u0629", "863": "\u0627\u062a\u0647", "864": "\u2581\u0644\u0628\u0646", "865": "\u2581\u0645\u0645", "866": "\u0639\u0627\u0648\u0646", "867": "\u2581\u0628\u0634\u0643\u0644", "868": "\u062e\u062f", "869": "\u2581\u0627\u0628\u0646", "870": "\u064a\u0631\u064a", "871": "\u2581\u0627\u0644\u0645\u0627\u0636\u064a", "872": "\u2581\u0644\u0644\u0627", "873": "\u0639\u0631", "874": "\u2581\u0627\u0644\u062d\u0643\u0648\u0645\u0629", "875": "\u0644\u0633\u0637", "876": "\u0641\u0627\u0642", "877": "\u2581\u0639\u0644\u064a\u0647\u0627", "878": "\u0637\u0631", "879": "\u064a\u0626\u0629", "880": "\u0639\u062f\u0627\u062f", "881": "\u2581\u0627\u0644\u0627\u062a\u062d\u0627\u062f", "882": "\u2581\u0648\u0627\u0644\u062a\u064a", "883": "\u0644\u064a\u0629", "884": "\u2581\u0648\u0627\u0644\u062f", "885": "\u2581\u0627\u062d\u062a", "886": "\u0648\u062f\u0629", "887": "\u2581\u0627\u0644\u062f\u0648\u0644\u0629", "888": "\u2581\u0634\u064a", "889": "\u2581\u0645\u0648\u0627", "890": "\u2581\u0627\u0644\u062a\u062d", "891": "\u0639\u0645\u0627\u0644", "892": "\u2581\u0627\u0644\u062c\u0632", "893": "\u2581\u0627\u0644\u0641\u0631\u064a\u0642", "894": "\u2581\u0644\u0648", "895": "\u062c\u0631", "896": "\u2581\u0628\u0625", "897": "\u0635\u062d", "898": "\u0626\u0627", "899": "\u2581\u0623\u064a\u0636\u0627", "900": "\u0644\u0627\u062b", "901": "\u0644\u0637", "902": "\u2581\u0645\u0646\u0637\u0642\u0629", "903": "\u2581\u062d\u0627\u0644", "904": "\u2581\u0627\u0644\u0625\u0646", "905": "\u0637\u0646\u064a", "906": "\u2581\u0645\u0644\u064a\u0648\u0646", "907": "\u0642\u0627\u0644", "908": "\u2581\u0627\u0644\u0623\u062e", "909": "\u0627\u0631\u062a", "910": "\u2581\u0627\u0644\u0639\u0645", "911": "\u2581\u0641\u064a\u0645\u0627", "912": "\u0632\u0645", "913": "\u0637\u0627\u0631", "914": "\u2581\u0644\u0627\u0639", "915": "\u2581\u062c\u0647", "916": "\u2581\u0648\u0645\u0627", "917": "\u2581\u0645\u0645\u0627", "918": "\u2581\u0648\u0632\u064a\u0631", "919": "\u0627\u0644\u062f", "920": "\u2581\u0627\u0644\u0645\u0642\u0628\u0644", "921": "\u2581\u0628\u0639", "922": "\u2581\u0648\u0627\u0633\u062a", "923": "\u2581\u0623\u062d\u0645\u062f", "924": "\u2581\u0623\u0634", "925": "\u2581\u0627\u0644\u062c\u0646", "926": "\u064a\u0637", "927": "\u0623\u0629", "928": "\u0631\u064a\u0628", "929": "\u2581\u0627\u0644\u0645\u0646\u0637\u0642\u0629", "930": "\u0632\u0628", "931": "\u2581\u064a\u0634", "932": "\u0644\u0642", "933": "\u2581\u0645\u0635\u0631", "934": "\u062e\u062f\u0645", "935": "\u0628\u0627\u062f", "936": "\u2581\u062c\u0646", "937": "\u2581\u0648\u0632\u0627\u0631\u0629", "938": "\u0627\u0626\u064a\u0629", "939": "\u2581\u0634\u0631\u0643\u0629", "940": "\u062f\u064a\u062b", "941": "\u2581\u0627\u0644\u0625\u0645", "942": "\u2581\u062a\u0643\u0648\u0646", "943": "\u2581\u0633\u0646\u0629", "944": "\u0633\u0627\u0621", "945": "\u064a\u062f\u0629", "946": "\u2581\u0627\u0644\u0645\u0634\u0627\u0631", "947": "\u2581\u0644\u064a\u0633", "948": "\u0641\u0642", "949": "\u0643\u0633", "950": "\u0643\u0631\u064a", "951": "\u2581\u0644\u0625", "952": "\u0627\u0633", "953": "\u2581\u0641\u0642\u062f", "954": "\u2581\u0627\u0644\u0645\u0645\u0644\u0643\u0629", "955": "\u062d\u062b", "956": "\u064a\u0631\u0627\u0646", "957": "\u2581\u0644\u0628\u0646\u0627\u0646", "958": "\u0636\u0629", "959": "\u062c\u0646", "960": "\u0643\u062b\u0631", "961": "\u2581\u0627\u0644\u062b\u0627\u0646\u064a", "962": "\u0645\u064a\u0629", "963": "\u0648\u0642\u0641", "964": "\u0639\u0627\u0631", "965": "\u2581\u0627\u0644\u062f\u0643\u062a\u0648\u0631", "966": "\u0632\u0644", "967": "\u0644\u064a\u0627\u062a", "968": "\u0648\u0627\u0628", "969": "\u2581\u0627\u0644\u0645\u0628\u0627\u0631", "970": "\u2581\u0627\u0644\u0634\u0631", "971": "\u062e\u0630", "972": "\u0633\u0631\u0627\u0626\u064a\u0644", "973": "\u2581\u0623\u0645\u0627\u0645", "974": "\u064a\u0646\u064a\u0629", "975": "\u2581\u0632\u064a", "976": "\u0627\u0645\u0627", "977": "\u0627\u0630", "978": "\u2581\u0642\u064a", "979": "\u2581\u0627\u0644\u0623\u0645\u0646", "980": "\u2581\u062d\u064a\u0646", "981": "\u2581\u0645\u062f\u064a\u0631", "982": "\u258114", "983": "\u0627\u0641\u0638\u0629", "984": "\u2581\u064a\u0633", "985": "\u2581\u0648\u0644\u0645", "986": "\u2581\u0641\u0647", "987": "\u2581\u0627\u0644\u0641\u062a", "988": "\u2581\u062e\u0627\u0635\u0629", "989": "\u2581\u0646\u0642", "990": "\u2581\u062a\u0633\u062a", "991": "\u2581\u0634\u062e\u0635", "992": "\u2581\u0646\u062d\u0648", "993": "\u062d\u0646", "994": "\u0648\u0647", "995": "\u2581\u0627\u0631\u062a", "996": "\u2581\u062a\u0641", "997": "\u2581\u0623\u062e\u0631\u0649", "998": "\u0648\u062d", "999": "\u2581\u0639\u0628\u062f\u0627\u0644\u0639\u0632\u064a\u0632", "1000": "\u2581\u0648\u0635", "1001": "\u2581\u0628\u0645\u0627", "1002": "\u0648\u0644\u0627\u064a\u0627\u062a", "1003": "\u0631\u064a\u0641", "1004": "\u064a\u0644\u064a", "1005": "\u2581\u0648\u0627\u0644\u0625", "1006": "\u0631\u0628\u0639", "1007": "\u2581\u0648\u062e", "1008": "\u064a\u0627\u0644", "1009": "\u2581\u0627\u0644\u0645\u062c\u0644\u0633", "1010": "\u0648\u0631\u0648", "1011": "\u0638\u0645\u0629", "1012": "\u2581\u0627\u0633", "1013": "\u062c\u0631\u0627\u0621", "1014": "\u0641\u064a\u0630", "1015": "\u0627\u062d\u0628", "1016": "\u2581\u0639\u062f\u0645", "1017": "\u2581\u0639\u0646\u062f\u0645\u0627", "1018": "\u063a\u0629", "1019": "\u0634\u0631\u0629", "1020": "\u0631\u0627\u0643", "1021": "\u2581\u0627\u0644\u0648\u0642\u062a", "1022": "\u0638\u0627\u0645", "1023": "\u2581\u0627\u0644\u0648\u0637\u0646\u064a", "1024": "\u2581\u0648\u0627\u0644\u062d", "1025": "\u0645\u064a", "1026": "\u2581\u0627\u0644\u0639\u0642", "1027": "\u2581\u0627\u0644\u0625\u0633\u0644\u0627\u0645", "1028": "\u0635\u0628\u062d", "1029": "\u2581\u0627\u0644\u0623\u0648\u0644\u0649", "1030": "\u0631\u0641\u0629", "1031": "\u2581\u0628\u064a", "1032": "\u2581\u0639\u0628\u0631", "1033": "\u0646\u0627\u0626", "1034": "\u2581\u0646\u062a", "1035": "\u2581\u0648\u0627\u0644\u0646", "1036": "\u0644\u064a\u062c", "1037": "\u2581\u0627\u0644\u0644\u0628\u0646", "1038": "\u2581\u0627\u0644\u0633\u0639\u0648\u062f\u064a\u0629", "1039": "\u0637\u064a", "1040": "\u063a\u064a", "1041": "\u2581\u0644\u0644\u0623", "1042": "\u258110", "1043": "\u2581\u0645\u0646\u0647", "1044": "\u064a\u0641\u0629", "1045": "\u0632\u064a\u062f", "1046": "\u0638\u064a\u0645", "1047": "\u2581\u0628\u0633\u0628\u0628", "1048": "\u2581\u0641\u0642\u0637", "1049": "\u064a\u0627\u0629", "1050": "\u2581\u0623\u0645\u0627", "1051": "\u0627\u0646\u064a\u0627", "1052": "\u0645\u062a", "1053": "\u2581\u0628\u062c", "1054": "\u2581\u0627\u0644\u0645\u062c\u062a\u0645\u0639", "1055": "\u0642\u062f\u064a\u0645", "1056": "\u0648\u0646\u064a", "1057": "\u2581\u062f\u0648\u0644\u0627\u0631", "1058": "\u0632\u0645\u0629", "1059": "\u2581\u0627\u0644\u062e\u0627\u0631\u062c", "1060": "\u2581\u0645\u062f\u064a\u0646\u0629", "1061": "\u2581\u062f\u0648\u0631", "1062": "\u2581\u0633\u064a\u0627", "1063": "\u2581\u0627\u0644\u0635\u062d", "1064": "\u2581\u0642\u0627\u0626", "1065": "\u0627\u0626\u0631", "1066": "\u0642\u064a\u0642\u0629", "1067": "\u2581\u0642\u0627\u0645", "1068": "\u2581\u0631\u0633", "1069": "\u2581\u0643\u062b", "1070": "\u2581\u0642\u062f\u0645", "1071": "\u2581\u0646\u0647\u0627", "1072": "\u2581\u0645\u062e\u062a\u0644\u0641", "1073": "\u0632\u0627", "1074": "\u2581\u0648\u0623\u0636\u0627\u0641", "1075": "\u0627\u0628\u0639\u0629", "1076": "\u2581\u0644\u0645\u0627", "1077": "\u0648\u0645\u0627\u062a", "1078": "\u0643\u0645\u0629", "1079": "\u0643\u062a\u0628", "1080": "\u2581\u0628\u0644\u063a", "1081": "\u2581\u0648\u062c\u0648\u062f", "1082": "\u2581\u0627\u0644\u0639\u0644\u0627", "1083": "\u2581\u0622\u0644", "1084": "\u2581\u0648\u0627\u062d\u062f", "1085": "\u0647\u064a\u0645", "1086": "\u0627\u0628\u0644", "1087": "\u0647\u0645\u0629", "1088": "\u062d\u0642", "1089": "\u2581\u0627\u0644\u0634\u0631\u0643\u0629", "1090": "\u0643\u0648", "1091": "\u2581\u0628\u0633", "1092": "\u0639\u0627\u062f\u0629", "1093": "\u0634\u064a", "1094": "\u062a\u0631", "1095": "\u0627\u0639\u0629", "1096": "\u064a\u0627\u0621", "1097": "\u0627\u062a\u0647\u0627", "1098": "\u0631\u0648\u0641", "1099": "\u0645\u0639\u064a\u0629", "1100": "\u2581\u0627\u0644\u0634\u0639\u0628", "1101": "\u062d\u0644", "1102": "\u2581\u0648\u0627\u0644\u0633", "1103": "\u0631\u0633", "1104": "\u2581\u0627\u0644\u0645\u0631\u0643\u0632", "1105": "\u062c\u0632", "1106": "\u2581\u0648\u0645\u0639", "1107": "\u0627\u0639\u062a", "1108": "\u2581\u0641\u0631\u064a\u0642", "1109": "\u2581\u0627\u0644\u0639\u0631\u0627\u0642", "1110": "\u2581\u062f\u0627\u062e\u0644", "1111": "\u2581\u0627\u0628", "1112": "\u2581\u0627\u0644\u0627\u062d\u062a", "1113": "\u2581\u0627\u0644\u062e\u0637", "1114": "\u0644\u0627\u062b\u0629", "1115": "\u062e\u0628", "1116": "\u2581\u0627\u0644\u0648\u0644\u0627\u064a\u0627\u062a", "1117": "\u258118", "1118": "\u2581\u0627\u0644\u0644\u062c\u0646\u0629", "1119": "\u258112", "1120": "\u0641\u0638", "1121": "\u2581\u0637\u0631\u064a\u0642", "1122": "\u2581\u0627\u0644\u0645\u0647", "1123": "\u0642\u0627\u0637", "1124": "\u2581\u062a\u0648", "1125": "\u062c\u0647\u0629", "1126": "\u2581\u0628\u0627\u0644\u0646", "1127": "\u0627\u0628\u0639", "1128": "\u2581\u0648\u0647\u0630\u0627", "1129": "\u2581\u062a\u0628", "1130": "\u0648\u0633\u0637", "1131": "\u2581\u0628\u0635", "1132": "\u2581\u0627\u0644\u0646\u0627\u0633", "1133": "\u2581\u0648\u0627\u0644\u0634", "1134": "\u0636\u064a\u0629", "1135": "\u0627\u0646\u0629", "1136": "\u0623\u062a", "1137": "\u2581\u0636\u0645\u0646", "1138": "\u258115", "1139": "\u2581\u0639\u0634\u0631", "1140": "\u062a\u0645\u0631", "1141": "\u2581\u0627\u0644\u0628\u0646", "1142": "\u0637\u0642", "1143": "\u2581\u0639\u0644", "1144": "\u062d\u0627\u062a", "1145": "\u2581\u0623\u0642", "1146": "\u2581\u0648\u0633\u0644\u0645", "1147": "\u0639\u0636\u0627\u0621", "1148": "\u0645\u0633", "1149": "\u2581\u0627\u0644\u0641\u0644\u0633\u0637", "1150": "\u2581\u0635\u0644\u0649", "1151": "\u2581\u0635\u062d", "1152": "\u2581\u0648\u0625\u0646", "1153": "\u2581\u0628\u0642", "1154": "\u0648\u0644\u0647", "1155": "\u2581\u0627\u0644\u0627\u062c\u062a\u0645\u0627\u0639", "1156": "\u0636\u0627\u0621", "1157": "\u2581\u0627\u0644\u0639\u0631\u0628\u064a", "1158": "\u2581\u0627\u0644\u062c\u0647", "1159": "\u062c\u0627\u0646", "1160": "\u0642\u0627\u0641", "1161": "\u062f\u0627\u0621", "1162": "\u2581\u0648\u0639\u0644\u0649", "1163": "\u2581\u0639\u0645\u0631", "1164": "\u2581\u0627\u0644\u0622\u0646", "1165": "\u0639\u0649", "1166": "\u0631\u0627\u0636", "1167": "\u2581\u0633\u0645\u0648", "1168": "\u2581\u0623\u062d", "1169": "\u2581\u0627\u0644\u0644\u0627\u0639\u0628", "1170": "\u0628\u064a\u0631", "1171": "\u0645\u0628\u0631", "1172": "\u2581\u0627\u0644\u0645\u062e", "1173": "\u0627\u0644\u0649", "1174": "\u0645\u0644\u0629", "1175": "\u2581\u0627\u0644\u0644\u064a", "1176": "\u0648\u0627\u0642\u0639", "1177": "\u0631\u064a\u0637", "1178": "\u062a\u062e\u0627\u0628\u0627\u062a", "1179": "\u0633\u0628\u0648\u0639", "1180": "\u2581\u0627\u0644\u062b\u0627\u0644", "1181": "\u2581\u0627\u0644\u0645\u0627\u0644\u064a\u0629", "1182": "\u2581\u0645\u0631\u0643\u0632", "1183": "\u2581\u0627\u0644\u0623\u0645\u0631", "1184": "\u062c\u0627\u0632", "1185": "\u2581\u0627\u0644\u0638", "1186": "\u2581\u062c\u0627\u0621", "1187": "\u0644\u0627\u0628", "1188": "\u0637\u0644\u0642", "1189": "\u0627\u062f\u0631", "1190": "\u2581\u0636\u062f", "1191": "\u2581\u0625\u062f\u0627\u0631\u0629", "1192": "\u2581\u0627\u0644\u0648\u0632\u0631\u0627\u0621", "1193": "\u2581\u0627\u0644\u0627\u0642\u062a\u0635\u0627\u062f", "1194": "\u2581\u0627\u062e\u062a", "1195": "\u2581\u0646\u0633", "1196": "\u2581\u0628\u0627\u0644\u0625", "1197": "\u062c\u0628", "1198": "\u2581\u0643\u0628\u064a\u0631", "1199": "\u2581\u0623\u0628\u064a", "1200": "\u2581\u0623\u0644\u0641", "1201": "\u2581\u0644\u0639", "1202": "\u0641\u0631\u064a\u0642", "1203": "\u2581\u0644\u0644\u0639", "1204": "\u2581\u0648\u0642\u062a", "1205": "\u2581\u0644\u062f\u0649", "1206": "\u2581\u0645\u0633\u062a\u0648\u0649", "1207": "\u2581\u0627\u0644\u0628\u0631", "1208": "\u062c\u0627\u0644", "1209": "\u2581\u0627\u0644\u0648\u0627", "1210": "\u2581\u0623\u0647\u0645", "1211": "\u062c\u0627\u062a", "1212": "\u2581\u0644\u0644\u062d", "1213": "\u2581\u0639\u0627\u0645\u0627", "1214": "\u062e\u062f\u0627\u0645", "1215": "\u0648\u0645\u0627", "1216": "\u2581\u062a\u0631", "1217": "\u0631\u062d\u0644\u0629", "1218": "\u2581\u0627\u0644\u0642\u064a", "1219": "\u2581\u064a\u0642\u0648\u0644", "1220": "\u0631\u0627\u0633\u0629", "1221": "\u062f\u0627\u062f", "1222": "\u2581\u0627\u0644\u062e\u0644\u064a\u062c", "1223": "\u064a\u0627\u0647", "1224": "\u258111", "1225": "\u2581\u062d\u0644", "1226": "\u2581\u0627\u0644\u062a\u062f", "1227": "\u2581\u0627\u0644\u062f\u0648\u0644\u064a\u0629", "1228": "\u2581\u0627\u0644\u0645\u0642", "1229": "\u2581\u0630\u0643\u0631", "1230": "\u0637\u0628", "1231": "\u2581\u0639\u0646\u0647", "1232": "\u2581\u0643\u0628\u064a\u0631\u0629", "1233": "\u2581\u0644\u0644\u0634", "1234": "\u2581\u0644\u0647\u0645", "1235": "\u2581\u0648\u064a\u062a", "1236": "\u2581\u0627\u0644\u0634\u0628\u0627\u0628", "1237": "\u064a\u0643", "1238": "\u0627\u0631\u0628", "1239": "\u2581\u0623\u062e", "1240": "\u0627\u0642\u0629", "1241": "\u063a\u0644", "1242": "\u0636\u0648\u0631", "1243": "\u2581\u0635\u0627\u062d\u0628", "1244": "\u0627\u0647\u062f", "1245": "\u0627\u0644\u0628", "1246": "\u2581\u062c\u0632", "1247": "\u0624\u0648\u0646", "1248": "\u2581\u0627\u0644\u062f\u0648\u0644\u064a", "1249": "\u2581\u0627\u0644\u0633\u0627\u0628\u0642", "1250": "\u0627\u062b", "1251": "\u2581\u0627\u0644\u062a\u0642", "1252": "\u2581\u0627\u0644\u0639\u0644\u0645", "1253": "\u2581\u0623\u0646\u0647\u0627", "1254": "\u2581\u0648\u063a\u064a\u0631", "1255": "\u0647\u062a\u0645", "1256": "\u0627\u0639\u062f", "1257": "\u2581\u0627\u0644\u0634\u0631\u0642", "1258": "\u0639\u062a\u0628\u0631", "1259": "\u2581\u0648\u0639\u062f", "1260": "\u2581\u0627\u0644\u062e\u0627\u0635\u0629", "1261": "\u062f\u062a", "1262": "\u2581\u0627\u0644\u0642\u0637\u0627\u0639", "1263": "\u0648\u0636\u062d", "1264": "\u2581\u0627\u0644\u0639\u062f\u064a\u062f", "1265": "\u0635\u0648\u0635", "1266": "\u0627\u0643", "1267": "\u0633\u0643\u0631", "1268": "\u2581\u0645\u0634\u0627\u0631", "1269": "\u064a\u062f\u0627", "1270": "\u2581\u0646\u0634", "1271": "\u0628\u0631\u0627\u0647\u064a\u0645", "1272": "\u0648\u0631\u064a\u0627", "1273": "\u2581\u0627\u0644\u0628\u0637", "1274": "\u0627\u0645\u064a", "1275": "\u0627\u0647\u0631\u0629", "1276": "\u0648\u0621", "1277": "\u2581\u0646\u0641\u0633\u0647", "1278": "\u0639\u0644\u0646", "1279": "\u2581\u0642\u0631", "1280": "\u0645\u064a\u0646", "1281": "\u2581\u0627\u0644\u0633\u0646", "1282": "\u2581\u062d\u0633\u0646", "1283": "\u2581\u0648\u0636\u0639", "1284": "\u2581\u0627\u0644\u0645\u0648\u0627\u0637\u0646", "1285": "\u0647\u0646", "1286": "\u2581\u0627\u0644\u0643\u062a", "1287": "\u2581\u064a\u0624", "1288": "\u2581\u0641\u0639", "1289": "\u2581\u0641\u0627\u0644", "1290": "\u2581\u0627\u0644\u062a\u0635", "1291": "\u2581\u0627\u0644\u062a\u0639\u0644\u064a\u0645", "1292": "\u2581\u064a\u062c\u0628", "1293": "\u2581\u062c\u0627\u0646\u0628", "1294": "\u0633\u0633\u0629", "1295": "\u2581\u0644\u0634", "1296": "\u2581\u0644\u0627\u0639\u0628", "1297": "\u2581\u0628\u0648", "1298": "\u2581\u0627\u0644\u0642\u0627\u0646\u0648\u0646", "1299": "\u2581\u0627\u0644\u0623\u0646", "1300": "\u2581\u062c\u062f\u064a\u062f\u0629", "1301": "\u0626\u064a", "1302": "\u2581\u0645\u062e", "1303": "\u2581\u0627\u0644\u0648\u0637\u0646\u064a\u0629", "1304": "\u062e\u0631\u062c", "1305": "\u0627\u0626\u0628", "1306": "\u0637\u064a\u0629", "1307": "\u062a\u064a\u0646", "1308": "\u062f\u0645\u0627\u062a", "1309": "\u2581\u0646\u0641", "1310": "\u2581\u062e\u0627\u0644\u062f", "1311": "\u064a\u062a\u0647", "1312": "\u0634\u0629", "1313": "\u2581\u0645\u062c\u0645\u0648\u0639\u0629", "1314": "\u0636\u062d", "1315": "\u0644\u0639\u0628", "1316": "\u2581\u0627\u0645\u0633", "1317": "\u0637\u0644\u0628", "1318": "\u0645\u0627\u0646", "1319": "\u2581\u0644\u0627\u0646", "1320": "\u2581\u0627\u0644\u0627\u0631", "1321": "\u0637\u0641\u0627\u0644", "1322": "\u2581\u0644\u062f\u064a", "1323": "\u2581\u0627\u0644\u0633\u0644", "1324": "\u0642\u0631\u0627\u0631", "1325": "\u2581\u0639\u0645\u0644\u064a\u0629", "1326": "\u062b\u0646\u0627\u0621", "1327": "\u0646\u0627\u0646", "1328": "\u0647\u0627\u0628", "1329": "\u2581\u0648\u0627\u0644\u0630\u064a", "1330": "\u0627\u0628\u062a", "1331": "\u2581\u0627\u0644\u062d\u0631", "1332": "\u0632\u0627\u0644", "1333": "\u2581\u0645\u0634\u0631\u0648\u0639", "1334": "\u2581\u0627\u0644\u0639\u0627\u0644\u0645\u064a\u0629", "1335": "\u0628\u062f\u0623", "1336": "\u2581\u0627\u0644\u062b\u0627\u0646\u064a\u0629", "1337": "\u062a\u064a\u062c\u0629", "1338": "\u2581\u0628\u0643", "1339": "\u2581\u0628\u0627\u0646", "1340": "\u0646\u0639", "1341": "\u2581\u0639\u0642\u062f", "1342": "\u0643\u0627\u062a", "1343": "\u2581\u0627\u0644\u0646\u0641", "1344": "\u0633\u0633\u0627\u062a", "1345": "\u2581\u0648\u062c\u0647", "1346": "\u2581\u0648\u0643\u0627\u0646\u062a", "1347": "\u2581\u0644\u0644\u062f", "1348": "\u2581\u0645\u0648\u0636", "1349": "\u0631\u0628\u064a", "1350": "\u258113", "1351": "\u2581\u0623\u062c\u0644", "1352": "\u0631\u0628\u0629", "1353": "\u0637\u0644\u0627\u0642", "1354": "\u0627\u0647\u0631", "1355": "\u2581\u0645\u0634\u064a\u0631\u0627", "1356": "\u0627\u062f\u0627\u062a", "1357": "\u2581\u062a\u0631\u0643", "1358": "\u2581\u0647\u062f", "1359": "\u2581\u0641\u0644", "1360": "\u2581\u0628\u062f\u0627", "1361": "\u2581\u0639\u0636", "1362": "\u2581\u0648\u0623\u0643\u062f", "1363": "\u2581\u0627\u0644\u062a\u0649", "1364": "\u2581\u0627\u0644\u062f\u0627\u062e\u0644", "1365": "\u0638\u0647\u0631", "1366": "\u2581\u0634\u0631", "1367": "\u2581\u0627\u0644\u062a\u0623", "1368": "\u2581\u0627\u0644\u062d\u062f", "1369": "\u2581\u0627\u0644\u0645\u063a", "1370": "\u0628\u0627\u062d", "1371": "\u062f\u0647", "1372": "\u2581\u0630\u0627\u062a", "1373": "\u2581\u0623\u062c", "1374": "\u0647\u062f\u0627\u0641", "1375": "\u2581\u0634\u0647\u0631", "1376": "\u2581\u0639\u0644\u0627", "1377": "\u0627\u0646\u0627", "1378": "\u0648\u0628\u0629", "1379": "\u2581\u0627\u0644\u0633\u064a", "1380": "\u0627\u0626\u0631\u0629", "1381": "\u062c\u0627\u0647", "1382": "\u0633\u064a\u0627", "1383": "\u2581\u0627\u0644\u0628\u0644\u0627\u062f", "1384": "\u0646\u0627\u0645\u062c", "1385": "\u2581\u062d\u0645", "1386": "\u2581\u062f\u0648\u0644\u0629", "1387": "\u2581\u0631\u062d", "1388": "\u2581\u0645\u0633\u0624\u0648\u0644", "1389": "\u0635\u0627\u0631", "1390": "\u2581\u0639\u062f", "1391": "\u2581\u0627\u0644\u0643\u062b\u064a\u0631", "1392": "\u0642\u0645", "1393": "\u0646\u0641", "1394": "\u0627\u062f\u0645", "1395": "\u2581\u0635\u0641", "1396": "\u064a\u062f\u064a", "1397": "\u2581\u0645\u062c\u0627\u0644", "1398": "\u2581199", "1399": "\u0636\u0645\u0646", "1400": "\u2581\u0627\u0644\u0625\u0645\u0627\u0631\u0627\u062a", "1401": "\u0632\u0627\u0645", "1402": "\u2581\u0627\u0644\u0642\u0631", "1403": "\u0627\u0631\u0643", "1404": "\u0634\u0627\u0621", "1405": "\u2581\u0627\u0644\u0641\u062a\u0631\u0629", "1406": "\u0648\u0627\u0644", "1407": "\u2581\u0644\u0643", "1408": "\u2581\u0633\u0646\u0648\u0627\u062a", "1409": "\u0627\u0628\u064a\u0629", "1410": "\u2581\u0627\u0644\u0642\u062f\u0645", "1411": "\u2581\u0635\u0627\u0644\u062d", "1412": "\u2581\u0627\u0644\u0627\u0646\u062a", "1413": "\u2581\u062a\u0642\u062f\u0645", "1414": "\u0627\u064a", "1415": "\u0648\u0627\u0635\u0644", "1416": "\u2581\u0627\u0644\u0628\u0644\u062f", "1417": "\u2581\u0646\u0633\u0628\u0629", "1418": "\u2581\u0633\u0644", "1419": "\u2581\u0639\u0628", "1420": "\u0648\u0645\u0629", "1421": "\u2581\u0627\u0644\u062a\u0634", "1422": "\u2581\u0631\u0628", "1423": "\u2581\u0627\u0644\u0641\u0631", "1424": "\u2581\u0644\u062c\u0646\u0629", "1425": "\u2581\u0627\u0644\u0645\u0635\u0631", "1426": "\u2581\u062d\u062f\u062b", "1427": "\u2581\u0627\u0644\u0645\u0628\u0627\u0631\u0627\u0629", "1428": "\u0648\u064a\u0644", "1429": "\u2581\u0642\u0637\u0627\u0639", "1430": "\u0639\u0644\u0642", "1431": "\u2581\u0627\u0644\u0645\u062f\u064a\u0646\u0629", "1432": "\u2581\u0643\u0645", "1433": "\u0633\u0627\u0628", "1434": "\u2581\u062a\u062d\u0642\u064a\u0642", "1435": "\u2581\u0627\u062d\u062f", "1436": "\u0627\u0626\u0642", "1437": "\u2581\u0627\u0644\u0634\u0631\u0643\u0627\u062a", "1438": "\u2581\u0627\u0644\u0633\u0648\u0642", "1439": "\u2581\u062c\u062f\u0627", "1440": "\u2581\u062a\u0643", "1441": "\u2581\u0627\u062e", "1442": "\u2581\u0627\u0644\u062e\u0627\u0631\u062c\u064a\u0629", "1443": "\u2581\u0628\u064a\u0627\u0646", "1444": "\u2581\u0627\u0644\u0645\u0633\u0624\u0648\u0644", "1445": "\u0644\u064a\u0627", "1446": "\u2581\u0627\u0644\u062c\u062f\u064a\u062f", "1447": "\u2581\u0627\u0644\u0631\u0648", "1448": "\u062c\u064a\u0644", "1449": "\u0635\u0627\u062f\u0631", "1450": "\u2581\u0639\u0631\u0636", "1451": "\u2581\u0641\u0623", "1452": "\u2581\u0627\u0644\u062a\u0639\u0627\u0648\u0646", "1453": "\u0631\u064a\u0645", "1454": "\u2581\u0623\u0635", "1455": "\u2581\u0631\u064a\u0627\u0644", "1456": "\u2581\u062a\u0627\u0631\u064a\u062e", "1457": "\u258125", "1458": "\u2581\u062d\u0627\u0644\u0629", "1459": "\u2581\u0627\u0644\u0623\u0645\u0631\u064a", "1460": "\u062c\u0648\u0645", "1461": "\u0648\u062c\u062f", "1462": "\u2581\u0639\u062f\u0629", "1463": "\u2581\u0633\u0639\u0648\u062f", "1464": "\u2581\u0627\u0633\u0645", "1465": "\u2581\u0639\u0644\u0645", "1466": "\u0637\u0627\u0644\u0628", "1467": "\u2581\u0648\u0627\u0644\u0642", "1468": "\u2581\u0633\u0639\u062f", "1469": "\u2581\u062a\u0644", "1470": "\u2581\u0646\u0627\u062f\u064a", "1471": "\u2581\u0627\u0644\u0627\u0648\u0644", "1472": "\u2581\u0627\u0644\u062f\u064a\u0646", "1473": "\u2581\u0645\u0636", "1474": "\u2581\u062f\u064a", "1475": "\u2581\u0623\u063a", "1476": "\u2581\u0627\u0644\u0633\u064a\u0627\u0633\u064a\u0629", "1477": "\u2581\u0627\u0644\u062c\u0645", "1478": "\u0648\u0644\u0627\u062a", "1479": "\u2581\u0627\u062d\u0645\u062f", "1480": "\u2581\u062c\u062f\u064a\u062f", "1481": "\u2581\u062d\u0633\u0628", "1482": "\u0639\u0627\u064a\u0629", "1483": "\u2581\u062f\u0628\u064a", "1484": "\u0645\u062f\u0629", "1485": "\u0647\u064a", "1486": "\u0644\u0627\u062a", "1487": "\u2581\u0647\u0644", "1488": "\u2581\u064a\u0641", "1489": "\u062c\u0627\u062d", "1490": "\u0641\u0627\u0621", "1491": "\u2581\u0645\u0631\u0629", "1492": "\u0626\u064a\u0629", "1493": "\u2581\u0634\u064a\u0621", "1494": "\u2581\u0635\u062f", "1495": "\u2581\u0627\u0644\u0646\u0647\u0627", "1496": "\u0647\u0627\u0632", "1497": "\u2581\u0648\u0627\u0644\u0635", "1498": "\u0627\u0626\u062c", "1499": "\u2581\u0633\u0639\u064a\u062f", "1500": "\u2581\u0646\u0647\u0627\u064a\u0629", "1501": "\u062b\u0645\u0627\u0631", "1502": "\u0627\u0626\u064a", "1503": "\u0642\u0647", "1504": "\u2581\u0643\u062a\u0627\u0628", "1505": "\u0627\u0644\u0641", "1506": "\u2581\u0627\u0644\u0646\u0638\u0627\u0645", "1507": "\u2581\u0627\u0644\u062c\u0645\u0647", "1508": "\u2581\u062d\u0643\u0648\u0645", "1509": "\u2581\u0644\u0643\u0644", "1510": "\u2581\u0644\u0633", "1511": "\u2581\u0645\u062d\u0627", "1512": "\u0642\u0631\u064a\u0631", "1513": "\u0648\u064a\u0627\u062a", "1514": "\u0646\u064a\u0646", "1515": "\u062a\u062e\u0628", "1516": "\u2581\u0627\u0644\u0637\u0628\u064a", "1517": "\u2581\u0627\u0634", "1518": "\u0643\u0627\u0631", "1519": "\u2581\u062a\u062e", "1520": "\u258117", "1521": "\u2581\u0633\u064a\u062a", "1522": "\u062a\u0647\u0645", "1523": "\u2581\u0628\u0627\u0633\u0645", "1524": "\u0631\u064a\u0642\u0629", "1525": "\u2581\u0627\u0644\u0625\u0639\u0644\u0627\u0645", "1526": "\u0643\u0644\u0629", "1527": "\u062f\u0645\u0629", "1528": "\u2581\u0623\u0641", "1529": "\u2581\u0627\u0644\u0639\u062f", "1530": "\u2581\u0648\u0627\u0644\u0628", "1531": "\u2581\u0643\u0648\u0646", "1532": "\u2581\u0648\u0644\u062f", "1533": "\u0648\u0631\u0627", "1534": "\u2581\u0648\u0628\u0639\u062f", "1535": "\u2581\u0648\u0627\u0644\u062b", "1536": "\u0639\u064a\u0646", "1537": "\u2581\u0648\u062a\u0645", "1538": "\u2581\u0642\u0631\u0627\u0631", "1539": "\u0644\u0645\u064a\u0646", "1540": "\u0626\u0627\u0633\u0629", "1541": "\u2581\u062b\u0644\u0627\u062b\u0629", "1542": "\u2581\u0645\u0628", "1543": "\u0631\u0627\u0645", "1544": "\u2581\u0627\u0644\u0627\u0645\u064a\u0631", "1545": "\u2581\u0643\u064a\u0641", "1546": "\u0633\u0627\u0633", "1547": "\u2581\u0645\u0646\u062a", "1548": "\u2581\u0645\u0643", "1549": "\u2581\u0627\u0644\u0645\u0634\u0631\u0648\u0639", "1550": "\u2581\u0627\u0644\u062f\u0627\u062e\u0644\u064a\u0629", "1551": "\u258116", "1552": "\u2581\u0646\u0642\u0637\u0629", "1553": "\u062e\u0635\u0635", "1554": "\u2581\u0648\u0643\u0630\u0644\u0643", "1555": "\u062d\u0635", "1556": "\u0627\u0645\u0644\u0629", "1557": "\u0627\u062f\u062b", "1558": "\u2581\u0627\u0644\u062c\u062f\u064a\u062f\u0629", "1559": "\u2581\u0627\u0644\u062a\u0637", "1560": "\u062a\u0644", "1561": "\u258130", "1562": "\u2581\u0627\u0644\u0627\u062f", "1563": "\u2581\u062a\u0639\u062f", "1564": "\u2581\u0627\u0644\u0642\u0628", "1565": "\u2581\u0628\u064a\u0646\u0645\u0627", "1566": "\u2581\u0627\u0644\u0628\u062d\u0631", "1567": "\u2581\u0627\u0644\u0645\u0635\u0631\u064a", "1568": "\u0648\u0644\u064a", "1569": "\u2581\u0645\u0643\u0627\u0646", "1570": "\u2581\u0641\u0647\u062f", "1571": "\u2581\u0627\u0644\u0642\u062f", "1572": "\u2581\u0639\u0642", "1573": "\u2581\u0627\u0644\u0647\u064a\u0626\u0629", "1574": "\u0627\u062f\u0644", "1575": "\u062a\u0627", "1576": "\u0648\u0627\u0644\u064a", "1577": "\u2581\u062f\u064a\u0646", "1578": "\u2581\u0627\u0644\u0627\u062e", "1579": "\u2581\u0627\u062f", "1580": "\u2581\u0648\u064a\u0639", "1581": "\u0627\u062c\u0629", "1582": "\u2581\u0627\u0644\u0622\u062e\u0631", "1583": "\u2581\u0631\u0623", "1584": "\u2581\u0627\u0644\u0641\u0631\u0646", "1585": "\u0641\u0647", "1586": "\u2581\u0644\u062c", "1587": "\u0638\u0628\u064a", "1588": "\u2581\u0627\u0644\u0645\u0637", "1589": "\u062d\u064a\u062d", "1590": "\u2581\u0627\u0644\u0627\u0633", "1591": "\u0635\u0648\u0631", "1592": "\u2581\u0648\u0627\u0644\u0641", "1593": "\u062c\u0627\u0648\u0632", "1594": "\u2581\u0623\u0646\u0627", "1595": "\u0627\u0635\u0645\u0629", "1596": "\u0647\u0648\u0631", "1597": "\u2581\u064a\u0623", "1598": "\u2581\u0627\u0644\u0623\u062d", "1599": "\u062c\u0647\u0632\u0629", "1600": "\u2581\u0627\u0644\u062d\u062f\u064a\u062b", "1601": "\u0642\u0627\u0641\u0629", "1602": "\u2581\u0627\u0644\u062c\u064a\u0634", "1603": "\u2581\u0648\u0627\u0644\u062c", "1604": "\u2581\u0643\u0631\u0629", "1605": "\u2581\u064a\u062d\u062a", "1606": "\u062d\u0628", "1607": "\u0639\u0644\u0627\u0646", "1608": "\u2581\u0648\u0627\u062d\u062f\u0629", "1609": "\u2581\u0641\u0636", "1610": "\u2581\u064a\u0628", "1611": "\u2581\u0627\u0644\u062f\u0641\u0627\u0639", "1612": "\u2581\u0644\u0644\u0646", "1613": "\u0648\u0628\u064a\u0629", "1614": "\u0627\u062f\u064a\u0629", "1615": "\u062e\u0648\u0644", "1616": "\u2581\u0645\u062b", "1617": "\u2581\u062d\u0627\u0644\u064a\u0627", "1618": "\u2581\u0623\u0643\u062f", "1619": "\u2581\u0644\u0645\u0646", "1620": "\u064a\u0635", "1621": "\u2581\u0627\u0644\u062d\u064a\u0627\u0629", "1622": "\u064a\u0631\u064a\u0629", "1623": "\u0648\u062b", "1624": "\u2581\u0628\u064a\u0631", "1625": "\u2581\u0623\u0644", "1626": "\u0627\u062f\u0647", "1627": "\u2581\u0648\u0644\u064a\u0633", "1628": "\u2581\u0627\u0644\u0633\u0645\u0648", "1629": "\u2581\u0647\u0645", "1630": "\u2581\u0648\u062b", "1631": "\u0637\u0639", "1632": "\u2581\u0648\u0627\u0644\u062e", "1633": "\u0643\u064a\u0644", "1634": "\u2581\u0627\u0644\u0645\u0646\u062a\u062e\u0628", "1635": "\u2581\u0623\u0643\u0628\u0631", "1636": "\u2581\u0625\u0630", "1637": "\u2581\u0645\u0647", "1638": "\u2581\u0628\u0627\u0628", "1639": "\u0639\u0644\u0648\u0645\u0627\u062a", "1640": "\u2581\u062d\u062f\u064a\u062b", "1641": "\u0642\u062f\u0631", "1642": "\u2581\u0627\u0644\u0633\u0639\u0648\u062f\u064a", "1643": "\u2581\u0623\u0639\u0645\u0627\u0644", "1644": "\u0631\u064a\u062d", "1645": "\u2581\u0628\u0627\u0644\u0623", "1646": "\u0627\u0635\u0631", "1647": "\u0642\u064a\u0629", "1648": "\u2581\u062a\u062d\u062f", "1649": "\u2581\u0628\u0627\u0633\u062a", "1650": "\u0642\u0644\u064a\u0645", "1651": "\u2581\u0628\u0643\u0644", "1652": "\u2581\u0628\u0646\u0633\u0628\u0629", "1653": "\u2581\u062a\u0648\u0627", "1654": "\u2581\u0648\u0623\u0634\u0627\u0631", "1655": "\u0644\u0645\u0627\u0646", "1656": "\u2581\u0633\u0627\u0628", "1657": "\u2581\u062d\u0633\u064a\u0646", "1658": "\u2581\u0645\u0646\u0647\u0645", "1659": "\u0628\u0627\u0637", "1660": "\u2581\u0646\u0627\u0626\u0628", "1661": "\u0634\u062d", "1662": "\u2581\u0648\u0628\u064a\u0646", "1663": "\u2581\u0628\u0627\u0631", "1664": "\u2581\u0631\u063a\u0645", "1665": "\u2581\u0628\u0631\u0646\u0627\u0645\u062c", "1666": "\u063a\u064a\u064a\u0631", "1667": "\u0636\u0627\u064a\u0627", "1668": "\u2581\u0633\u0644\u064a\u0645", "1669": "\u2581\u0644\u0628", "1670": "\u062c\u064a", "1671": "\u2581\u0639\u0627\u0644\u0645", "1672": "\u2581\u0648\u0635\u0644", "1673": "\u2581\u0627\u0644\u0634\u062e\u0635", "1674": "\u0635\u062d\u0627\u0628", "1675": "\u2581\u0644\u0643\u0631\u0629", "1676": "\u2581\u0628\u063a", "1677": "\u2581\u0627\u0644\u0644\u0628\u0646\u0627\u0646\u064a", "1678": "\u2581\u0628\u0646\u0627\u0621", "1679": "\u2581\u0627\u0644\u064a\u0645\u0646", "1680": "\u2581\u0627\u0644\u0644\u0642\u0627\u0621", "1681": "\u062c\u0631\u0627\u0621\u0627\u062a", "1682": "\u0627\u062d\u0629", "1683": "\u0637\u064a\u0639", "1684": "\u0648\u0646\u064a\u0629", "1685": "\u2581\u0641\u062a\u0631\u0629", "1686": "\u2581\u0644\u0644\u0625", "1687": "\u2581\u0627\u0644\u062e\u0627\u0635", "1688": "\u2581\u062e\u0627\u0631\u062c", "1689": "\u2581\u0645\u0644\u064a\u0627\u0631", "1690": "\u2581\u064a\u0639\u0646\u064a", "1691": "\u2581\u0644\u0642", "1692": "\u2581\u062a\u0642\u062f\u064a\u0645", "1693": "\u2581\u0623\u0641\u0636\u0644", "1694": "\u2581\u0627\u0644\u0627\u0639\u062a", "1695": "\u2581\u0627\u0644\u0634\u0639", "1696": "\u2581\u0627\u0644\u0633\u0644\u0627\u0645", "1697": "\u0647\u0627\u062f", "1698": "\u0634\u0641\u0649", "1699": "\u0627\u062e", "1700": "\u0627\u0626\u0632\u0629", "1701": "\u0631\u0627\u062a\u064a\u062c", "1702": "\u0626\u0628", "1703": "\u2581\u062d\u0632\u0628", "1704": "\u0642\u0642", "1705": "\u2581\u0648\u062a\u0639", "1706": "\u0648\u0641\u064a\u0631", "1707": "\u0647\u062a\u0645\u0627\u0645", "1708": "\u2581\u0627\u0644\u0631\u0633\u0645", "1709": "\u0633\u0644\u062d\u0629", "1710": "\u2581\u0627\u0644\u062a\u0633", "1711": "\u0627\u0626\u0641", "1712": "\u0645\u064a\u0644", "1713": "\u2581\u0645\u0631\u062a", "1714": "\u0631\u062c\u0629", "1715": "\u2581\u0627\u0644\u062f\u0648\u0631", "1716": "\u0646\u0627\u0639\u0629", "1717": "\u0647\u0628", "1718": "\u2581\u062f\u0631", "1719": "\u0631\u0627\u0628", "1720": "\u0639\u0628\u0629", "1721": "\u2581\u0645\u0628\u0627\u0631\u0627\u0629", "1722": "\u2581\u062b\u0644\u0627\u062b", "1723": "\u2581\u0627\u062c\u062a\u0645\u0627\u0639", "1724": "\u0627\u0631\u0639", "1725": "\u0646\u062a\u0627\u062c", "1726": "\u064a\u0627\u0645", "1727": "\u2581\u0648\u0642\u0627\u0644\u062a", "1728": "\u064a\u062a\u0647\u0627", "1729": "\u0644\u064a\u0646", "1730": "\u2581\u0646\u0638\u0627\u0645", "1731": "\u0627\u0626\u062f", "1732": "\u0626\u0627\u062a", "1733": "\u2581\u0646\u0642\u0644", "1734": "\u0647\u0631\u0628", "1735": "\u2581\u0627\u0644\u0646\u0627\u062f\u064a", "1736": "\u2581\u0644\u0644\u062c", "1737": "\u2581\u0642\u062f\u0631", "1738": "\u0631\u0628\u0639\u0629", "1739": "\u2581\u0627\u0644\u0645\u0627\u0644", "1740": "\u2581\u0642\u0627\u0646\u0648\u0646", "1741": "\u0642\u0627\u0645\u0629", "1742": "\u0627\u062f\u062a", "1743": "\u2581\u062c\u0627\u0645\u0639\u0629", "1744": "\u0647\u064a\u0631", "1745": "\u2581\u0631\u0623\u0633", "1746": "\u0627\u0641\u064a", "1747": "\u2581\u0627\u0644\u0627\u0646\u062a\u062e\u0627\u0628\u0627\u062a", "1748": "\u2581\u0627\u0644\u0623\u0634", "1749": "\u2581\u0627\u0644\u062e\u0627\u0645", "1750": "\u0633\u0631\u0627\u0626\u064a\u0644\u064a", "1751": "\u2581\u0627\u0630\u0627", "1752": "\u2581\u0644\u0644\u0633", "1753": "\u2581\u0645\u0624\u0643", "1754": "\u2581\u0627\u0644\u0643\u0628\u064a\u0631", "1755": "\u0648\u0633\u0641", "1756": "\u2581\u0623\u0628\u0648\u0638\u0628\u064a", "1757": "\u2581\u0627\u0644\u062b\u0627\u0644\u062b", "1758": "\u2581\u0648\u0627\u0644\u0627\u0633\u062a", "1759": "\u0643\u064a\u0646", "1760": "\u0641\u0631\u0627\u062f", "1761": "\u0648\u0641\u064a", "1762": "\u2581\u0642\u0644", "1763": "\u2581\u064a\u0648\u0646", "1764": "\u0630\u0631", "1765": "\u2581\u0627\u0644\u0631\u062d", "1766": "\u2581\u0648\u0637", "1767": "\u2581\u0627\u0644\u0633\u0641", "1768": "\u2581\u062c\u0644", "1769": "\u2581\u0645\u0628\u0627", "1770": "\u0637\u0644\u0639", "1771": "\u2581\u0633\u0643\u0627\u0646", "1772": "\u2581\u0633\u0648\u0627\u0621", "1773": "\u2581\u062c\u0647\u0629", "1774": "\u2581\u0627\u0642\u062a", "1775": "\u0645\u0627\u064a\u0629", "1776": "\u2581\u062d\u0627", "1777": "\u2581\u0645\u0642\u0627\u0628\u0644", "1778": "\u2581\u0633\u0644\u0637", "1779": "\u2581\u0638\u0644", "1780": "\u2581\u0628\u0627\u0644\u0639", "1781": "\u2581\u0645\u0633\u0627", "1782": "\u0648\u0646\u0629", "1783": "\u2581\u0627\u0644\u0646\u0627\u0626\u0628", "1784": "\u2581\u0625\u0644\u064a\u0647", "1785": "\u2581\u0634\u0647\u062f", "1786": "\u2581\u0628\u0641", "1787": "\u2581\u0645\u0633\u0627\u0621", "1788": "\u063a\u0627", "1789": "\u2581\u0637\u0644\u0628", "1790": "\u0648\u0627\u062c", "1791": "\u2581\u062e\u0635\u0648\u0635", "1792": "\u2581\u0627\u0644\u0645\u0631\u0623\u0629", "1793": "\u2581\u062f\u0639\u0645", "1794": "\u2581\u0631\u0645", "1795": "\u2581\u0645\u0644", "1796": "\u2581\u0627\u0644\u0623\u062e\u064a\u0631\u0629", "1797": "\u2581\u0627\u0644\u0645\u0631\u062d\u0644\u0629", "1798": "\u2581\u0628\u062f\u0627\u064a\u0629", "1799": "\u2581\u0627\u0644\u062b\u0644\u0627\u062b", "1800": "\u0647\u0631\u062c\u0627\u0646", "1801": "\u0627\u0644\u064a\u0627\u062a", "1802": "\u2581\u0627\u0644\u0627\u0642\u062a", "1803": "\u2581\u062d\u0645\u062f", "1804": "\u2581\u0628\u0642\u064a", "1805": "\u2581\u0623\u0631", "1806": "\u2581\u0628\u0627\u062a", "1807": "\u2581\u0643\u0627\u0641\u0629", "1808": "\u0627\u0628\u064a", "1809": "\u2581\u0628\u064a\u062a", "1810": "\u2581\u0627\u0644\u0623\u0631\u0636", "1811": "\u2581\u0627\u0644\u062d\u0643\u0645", "1812": "\u2581\u0623\u0645\u0631\u064a", "1813": "\u2581\u062a\u0639\u0627\u0644\u0649", "1814": "\u0635\u0627\u0644", "1815": "\u2581\u0627\u0644\u062d\u0627\u0644\u064a", "1816": "\u0648\u062c\u0647", "1817": "\u2581\u0625\u0645", "1818": "\u0633\u062a\u0627\u0646", "1819": "\u2581\u064a\u0646\u0627", "1820": "\u2581\u0627\u0639", "1821": "\u2581\u0627\u0646\u0647\u0627", "1822": "\u2581\u0627\u0644\u0648\u0632\u0627\u0631\u0629", "1823": "\u0642\u0635", "1824": "\u2581\u0642\u0648\u0644\u0647", "1825": "\u2581\u0627\u0644\u062c\u0645\u064a\u0639", "1826": "\u0645\u0648\u062f", "1827": "\u0645\u0627\u0644\u064a", "1828": "\u2581\u0641\u0627\u0646", "1829": "\u2581\u0627\u0644\u0630\u0649", "1830": "\u0624\u0644\u0627\u0621", "1831": "\u0627\u062a\u0647\u0645", "1832": "\u2581\u0627\u0644\u0623\u0639\u0645\u0627\u0644", "1833": "\u064a\u0627\u0631", "1834": "\u062a\u064a\u0627\u0631", "1835": "\u0645\u064a\u0632", "1836": "\u2581\u062a\u0624", "1837": "\u062d\u0642\u064a\u0642", "1838": "\u2581\u0627\u0644\u062d\u0631\u0628", "1839": "\u2581\u0645\u0644\u0627", "1840": "\u0634\u0627\u0631\u0643", "1841": "\u2581\u0625\u0646\u0647", "1842": "\u2581\u0627\u0644\u0634\u0631\u064a\u0641", "1843": "\u2581\u0646\u0648\u0639", "1844": "\u2581\u0646\u064a", "1845": "\u0645\u0627\u0639\u064a", "1846": "\u2581\u0627\u0644\u0645\u0634\u062a", "1847": "\u2581\u0648\u062a\u0646", "1848": "\u0645\u0631\u0627\u0631", "1849": "\u2581\u062a\u0646\u0627", "1850": "\u2581\u0641\u0644\u0627", "1851": "\u0627\u0639\u0631", "1852": "\u2581\u0645\u0627\u0644", "1853": "\u2581\u0628\u0645\u0646", "1854": "\u2581\u0645\u0648\u0642\u0639", "1855": "\u2581\u0627\u0635", "1856": "\u0627\u0639\u0627\u062a", "1857": "\u0633\u0627\u0645", "1858": "\u2581\u062a\u0646\u0641\u064a\u0630", "1859": "\u2581\u0631\u062c\u0627\u0644", "1860": "\u0635\u0627\u0644\u0627\u062a", "1861": "\u0643\u0627\u0645", "1862": "\u2581\u0633\u0631", "1863": "\u2581\u0627\u0644\u0623\u062e\u0631\u0649", "1864": "\u2581\u0627\u0644\u062a\u0631\u0643", "1865": "\u2581\u0623\u062a", "1866": "\u0628\u064a\u0642", "1867": "\u2581\u0627\u0644\u062d\u0642", "1868": "\u0633\u0628\u0627\u0628", "1869": "\u2581\u062d\u0631\u0643\u0629", "1870": "\u2581\u0647\u064a\u0626\u0629", "1871": "\u2581\u062f\u0627\u0626", "1872": "\u2581\u0632\u064a\u0627\u062f\u0629", "1873": "\u2581\u0641\u0646", "1874": "\u2581\u0636\u0631", "1875": "\u2581\u0627\u0643\u062a", "1876": "\u0631\u0627\u0639", "1877": "\u0637\u0644\u0627", "1878": "\u2581\u0627\u0644\u062c\u0645\u0639\u064a\u0629", "1879": "\u2581\u0627\u0644\u0645\u0633\u062a\u0642\u0628\u0644", "1880": "\u0631\u0641\u0639", "1881": "\u0643\u0628\u0631", "1882": "\u2581\u0643\u0623\u0633", "1883": "\u2581\u064a\u0643\u0646", "1884": "\u2581\u0648\u0633\u0637", "1885": "\u0634\u062f", "1886": "\u2581\u0646\u062c", "1887": "\u2581\u064a\u0635", "1888": "\u2581\u0633\u0645", "1889": "\u2581\u0627\u0633\u062a\u062e\u062f\u0627\u0645", "1890": "\u0631\u0648\u062c", "1891": "\u0645\u0627\u0639\u0629", "1892": "al", "1893": "\u0622\u0646", "1894": "\u2581\u0627\u0644\u0645\u062d\u062a", "1895": "\u0644\u0627\u0629", "1896": "\u0648\u0628\u0631", "1897": "\u064a\u0642", "1898": "\u2581\u0648\u0630\u0643\u0631", "1899": "\u2581\u0627\u0644\u0623\u0639", "1900": "\u2581\u0627\u0644\u0645\u0648\u0627\u0637\u0646\u064a\u0646", "1901": "\u2581\u064a\u0646\u062a", "1902": "\u2581\u0627\u062d", "1903": "\u0638\u0641", "1904": "\u2581\u0627\u0644\u0627\u0642\u062a\u0635\u0627\u062f\u064a\u0629", "1905": "\u0648\u0636\u0639", "1906": "\u2581\u0642\u0635", "1907": "\u2581\u064a\u0642\u0648\u0645", "1908": "\u2581\u062c\u062f", "1909": "\u2581\u0627\u0644\u0645\u062f\u0631", "1910": "\u0647\u064a\u0644", "1911": "\u0628\u0627\u0621", "1912": "\u2581\u0627\u0646\u0627", "1913": "\u2581\u0627\u0644\u0639\u0644", "1914": "\u2581\u0623\u0645\u064a\u0631", "1915": "\u062b\u0627\u0631", "1916": "\u2581\u0631\u0642\u0645", "1917": "\u0631\u0627\u0643\u0632", "1918": "\u0633\u0643\u0631\u064a\u0629", "1919": "\u0646\u0627\u0635\u0631", "1920": "\u0632\u0646", "1921": "\u2581\u0627\u0644\u062a\u0627\u0631\u064a\u062e", "1922": "\u2581\u0631\u0633\u0645", "1923": "\u2581\u0644\u0627\u0633\u062a", "1924": "\u2581\u0625\u062d\u062f", "1925": "\u0639\u0644\u064a\u0645", "1926": "\u0631\u0648\u0636", "1927": "\u2581\u0628\u0627\u0644\u0646\u0633\u0628\u0629", "1928": "\u2581\u0627\u0644\u0645\u0648\u0633\u0645", "1929": "\u0628\u0631\u0632", "1930": "\u2581\u062e\u0644\u0641", "1931": "\u2581\u0627\u0644\u0625\u062f\u0627\u0631\u0629", "1932": "\u2581\u0631\u0633\u0648\u0644", "1933": "\u0642\u0628\u0627\u0644", "1934": "\u2581\u0639\u0628\u062f\u0627\u0644\u0631\u062d", "1935": "\u2581\u0627\u0644\u0623\u062f", "1936": "\u2581\u0623\u0645\u0631", "1937": "\u0647\u0644\u064a", "1938": "\u2581\u0627\u0644\u0639\u0646", "1939": "\u2581\u0628\u0644\u0627", "1940": "\u2581\u062e\u0635\u0648\u0635\u0627", "1941": "\u2581\u0644\u0646\u0627", "1942": "\u2581\u0634\u0639", "1943": "\u0648\u0641\u0631", "1944": "\u2581\u0631\u0648\u0627", "1945": "\u0648\u062c\u0648\u062f", "1946": "\u2581\u0642\u0628", "1947": "\u2581\u0643\u0646\u062a", "1948": "\u0631\u0635", "1949": "\u2581\u062d\u0635\u0644", "1950": "\u2581\u0623\u064a\u0627\u0645", "1951": "\u2581\u0644\u0642\u062f", "1952": "\u0631\u0627\u062c\u0639", "1953": "\u2581\u0627\u0644\u0644\u0627\u0639\u0628\u064a\u0646", "1954": "\u2581\u0644\u0644\u0642", "1955": "\u2581\u0637\u0628\u064a", "1956": "\u2581\u0646\u0635", "1957": "\u2581\u0627\u0644\u062e\u062f\u0645\u0627\u062a", "1958": "\u2581\u0627\u0644\u0633\u064a\u0627\u0633\u064a", "1959": "\u2581\u0627\u0644\u0627\u062c\u062a\u0645\u0627\u0639\u064a\u0629", "1960": "\u2581\u064a\u062e", "1961": "\u2581\u0627\u0644\u062f\u0648\u0631\u064a", "1962": "\u2581\u0627\u0644\u062e\u0645", "1963": "\u2581\u0627\u0631\u062a\u0641\u0627\u0639", "1964": "\u2581\u0627\u0644\u0645\u0634\u0627\u0631\u0643\u0629", "1965": "\u0631\u0632", "1966": "\u2581\u0627\u0644\u0628\u064a", "1967": "\u2581\u0627\u0644\u0642\u0631\u0627\u0631", "1968": "\u2581\u0648\u0643\u0644", "1969": "\u2581\u062a\u063a", "1970": "\u2581\u0627\u0644\u062c\u0627\u0645\u0639\u0629", "1971": "\u2581\u0627\u0644\u0642\u0648\u0627\u062a", "1972": "\u0631\u0645\u064a\u0646", "1973": "\u2581\u0633\u062c\u0644", "1974": "\u2581198", "1975": "\u2581\u0637\u0628", "1976": "\u062c\u0627\u0631", "1977": "\u2581\u0644\u0647\u0630\u0627", "1978": "\u2581\u0627\u0645\u0627\u0645", "1979": "\u0628\u0627\u0633", "1980": "\u2581\u062f\u0639", "1981": "\u2581\u0645\u0639\u0647", "1982": "\u2581\u0627\u0644\u0645\u0639\u0644\u0648\u0645\u0627\u062a", "1983": "\u2581\u0639\u0646\u0647\u0627", "1984": "\u2581\u0627\u0644\u0645\u0627\u0636\u064a\u0629", "1985": "\u0634\u0627\u0631\u0643\u0629", "1986": "\u2581\u0644\u0635", "1987": "\u0645\u0627\u0644\u064a\u0629", "1988": "\u2581\u0641\u0642\u0627\u0644", "1989": "\u2581\u0633\u0648\u0642", "1990": "\u2581\u0627\u0644\u0634\u0631\u0637\u0629", "1991": "\u0642\u0627\u0645", "1992": "\u2581\u0627\u0643\u062b\u0631", "1993": "\u2581\u0627\u0644\u062f\u0633\u062a", "1994": "\u2581\u0628\u0627\u0644\u0625\u0636\u0627\u0641\u0629", "1995": "\u2581\u0645\u0639\u062f", "1996": "\u0634\u0631\u064a\u0646", "1997": "\u2581\u0646\u062a\u064a\u062c\u0629", "1998": "\u2581\u0648\u0627\u0644\u0645\u0639", "1999": "\u2581\u062e\u0645", "2000": "\u0633\u0649", "2001": "\u2581\u0648\u062d\u062f", "2002": "\u2581\u062a\u0642\u0648\u0645", "2003": "\u2581\u0643\u062b\u064a\u0631\u0627", "2004": "\u258122", "2005": "\u0637\u0648\u064a\u0631", "2006": "\u0645\u0627\u0633", "2007": "\u2581\u0627\u0644\u0645\u0624\u062a\u0645\u0631", "2008": "\u0634\u0646", "2009": "\u2581\u0645\u0624\u0643\u062f\u0627", "2010": "\u0641\u062a\u062a", "2011": "\u0634\u0644", "2012": "\u2581\u0648\u0627\u0636\u0627\u0641", "2013": "\u2581\u0625\u0636\u0627\u0641\u0629", "2014": "\u2581\u0646\u0627\u0635\u0631", "2015": "\u064a\u0648\u0646", "2016": "\u2581\u064a\u0639\u062f", "2017": "\u2581\u0644\u0623\u0646\u0647", "2018": "\u2581\u0627\u0644\u0645\u0642\u0628\u0644\u0629", "2019": "\u0627\u0639\u062f\u0629", "2020": "\u2581\u062c\u0639\u0644", "2021": "\u2581\u062a\u0637\u0648\u064a\u0631", "2022": "\u2581\u0628\u0634\u0623\u0646", "2023": "\u062e\u0627\u0635", "2024": "\u2581\u0627\u0644\u0645\u0633\u0627", "2025": "\u2581\u0645\u0646\u0627", "2026": "\u2581\u064a\u0631", "2027": "\u258124", "2028": "\u2581\u0627\u0644\u0628\u0637\u0648\u0644\u0629", "2029": "\u2581\u0648\u0623\u0648\u0636\u062d", "2030": "\u0636\u0627\u0646", "2031": "\u2581\u0645\u0633\u0627\u0639\u062f", "2032": "\u2581\u064a\u0648\u0633\u0641", "2033": "\u0628\u0631\u0649", "2034": "\u2581\u0646\u062d\u0646", "2035": "\u2581\u0627\u0644\u0639\u0644\u0627\u0642\u0627\u062a", "2036": "\u2581\u0644\u064a\u0633\u062a", "2037": "\u2581\u0648\u064a\u0646", "2038": "\u2581\u0648\u0627\u0633", "2039": "\u2581\u0639\u0628\u062f\u0627\u0644\u0631\u062d\u0645\u0646", "2040": "\u2581\u0627\u0644\u0625\u0646\u0633\u0627\u0646", "2041": "\u2581\u0641\u0647\u0648", "2042": "\u2581\u0641\u0627", "2043": "\u0630\u0628", "2044": "\u0648\u062c\u064a\u0647", "2045": "\u0648\u0627\u0645", "2046": "\u2581\u0627\u0644\u0639\u0645\u0631", "2047": "\u2581\u0627\u0644\u0635\u062d\u0629", "2048": "\u2581\u0627\u0644\u0634\u0647\u0631", "2049": "\u0638\u0627\u0647\u0631", "2050": "\u258121", "2051": "\u2581\u0646\u0639", "2052": "\u2581\u0641\u0631\u0646", "2053": "\u064a\u0627\u0628", "2054": "\u0648\u0644\u0648\u062c", "2055": "\u2581\u0639\u0636\u0648", "2056": "\u2581\u0627\u0644\u0625\u0633\u0644\u0627\u0645\u064a\u0629", "2057": "\u0637\u0627\u0621", "2058": "an", "2059": "\u2581\u0625\u0633\u0631\u0627\u0626\u064a\u0644", "2060": "\u2581\u0648\u0636", "2061": "\u2581\u0623\u0645\u0646", "2062": "\u2581\u0627\u0644\u062a\u0641", "2063": "\u2581\u0648\u0645\u062f", "2064": "\u2581\u0628\u062f\u0623", "2065": "\u2581\u0627\u0644\u0645\u0632", "2066": "\u2581\u0631\u0624", "2067": "\u2581\u0627\u0644\u0642\u0635", "2068": "\u2581\u062d\u064a\u0627\u062a", "2069": "\u2581\u0627\u0644\u0645\u0644\u0643\u064a", "2070": "\u2581\u0648\u0639\u0646", "2071": "\u0631\u0627\u062d", "2072": "\u0648\u0631\u0627\u062a", "2073": "\u2581\u062d\u0642\u0648\u0642", "2074": "\u2581\u062c\u0646\u0648\u0628", "2075": "\u0641\u0642\u0629", "2076": "\u062b\u0646\u064a\u0646", "2077": "\u0631\u0627\u0642\u064a", "2078": "\u2581\u0627\u0644\u0644\u0628\u0646\u0627\u0646\u064a\u0629", "2079": "\u0635\u0627\u062f\u064a", "2080": "\u2581\u0633\u0644\u064a\u0645\u0627\u0646", "2081": "\u2581\u062c\u0627\u0646", "2082": "\u2581\u0633\u0648\u0631\u064a\u0627", "2083": "\u2581\u0627\u0644\u062d\u0644", "2084": "\u2581\u0648\u062a\u0634", "2085": "\u2581\u0625\u0633", "2086": "\u0642\u062f\u064a\u0631", "2087": "\u2581\u0627\u0644\u0642\u0627\u0647\u0631\u0629", "2088": "\u2581\u062a\u0639\u0631\u0636", "2089": "\u2581\u0648\u0622", "2090": "\u2581\u0648\u0627\u0639\u062a", "2091": "\u0646\u062f\u0648\u0642", "2092": "\u2581\u0645\u0628\u0627\u0631\u0643", "2093": "\u062b\u0645\u0631", "2094": "\u0633\u062a\u0631", "2095": "\u2581\u0647\u0624\u0644\u0627\u0621", "2096": "\u063a\u0628", "2097": "\u2581\u0631\u0641\u0636", "2098": "\u2581\u0644\u0631", "2099": "\u0633\u0627\u0633\u064a\u0629", "2100": "\u2581\u0628\u0623\u0646\u0647", "2101": "\u0644\u0628\u064a\u0629", "2102": "\u2581\u0627\u0644\u0639\u0627\u0635\u0645\u0629", "2103": "\u2581\u0632\u0648\u062c", "2104": "\u2581\u0627\u0644\u0645\u062d\u0644\u064a\u0629", "2105": "\u0642\u062f\u0645\u0629", "2106": "\u2581\u0627\u0644\u0628\u0639\u0636", "2107": "\u2581\u064a\u0639\u0631\u0641", "2108": "\u2581\u0627\u0644\u0645\u0639\u0627\u0631", "2109": "\u2581\u0637\u0627\u0644\u0628", "2110": "\u2581\u0625\u062f", "2111": "\u2581\u0648\u0633\u064a", "2112": "\u2581\u0643\u0627\u0644", "2113": "\u2581\u0627\u0644\u062f\u0631\u0627", "2114": "\u2581\u0645\u0648\u0633", "2115": "\u0635\u0644\u062d\u0629", "2116": "\u2581\u0643\u062a\u0628", "2117": "\u2581\u0644\u0644\u0627\u0633\u062a", "2118": "\u0627\u0643\u0644", "2119": "\u0635\u0627\u0628\u0629", "2120": "\u2581\u0627\u0644\u0645\u0628", "2121": "\u2581\u0627\u0644\u0635\u062d\u064a\u0629", "2122": "\u2581\u0645\u0639\u0644", "2123": "\u2581\u0627\u0644\u0633\u0644\u0637", "2124": "\u2581\u0627\u0644\u0645\u062f\u064a\u0631", "2125": "\u2581\u0628\u062f\u0623\u062a", "2126": "\u2581\u0627\u0644\u0642\u0627\u062f", "2127": "\u258123", "2128": "\u0627\u0631\u062f", "2129": "\u2581\u0628\u0639\u064a\u062f", "2130": "\u2581\u064a\u0639\u062a", "2131": "\u2581\u0641\u0648\u0642", "2132": "\u2581\u0627\u0644\u062b\u0642\u0627\u0641", "2133": "\u0627\u0646\u062a", "2134": "\u0624\u0627\u0644", "2135": "\u2581\u0627\u0644\u062d\u0643\u0648\u0645\u064a\u0629", "2136": "\u0627\u0631\u0642", "2137": "\u2581\u0639\u0645\u0644\u064a\u0627\u062a", "2138": "\u2581\u0627\u0644\u0645\u0646\u0627\u0637\u0642", "2139": "\u2581\u0643\u0630\u0644\u0643", "2140": "er", "2141": "\u2581\u0628\u062e", "2142": "\u2581\u0628\u0627\u0644\u062d", "2143": "\u0644\u064a\u0641", "2144": "\u062b\u0644\u0629", "2145": "\u2581\u0627\u0644\u062a\u0631\u0628\u064a\u0629", "2146": "\u2581\u0627\u0644\u062f\u064a\u0645", "2147": "\u2581\u0627\u0644\u062f\u0645", "2148": "\u0633\u062a\u0627\u0630", "2149": "\u2581\u0628\u0627\u0644\u062f", "2150": "\u2581\u062d\u0643\u0645", "2151": "\u2581\u0627\u0644\u0645\u0648\u0636", "2152": "\u0634\u0642", "2153": "\u2581\u0627\u063a", "2154": "\u2581\u0648\u0627\u0644\u0643", "2155": "\u2581\u0627\u0644\u0633\u0627\u0639\u0629", "2156": "\u0627\u0628\u0631", "2157": "\u0632\u064a\u0629", "2158": "\u2581\u0628\u0647\u062f\u0641", "2159": "\u2581\u0645\u062d\u0627\u0641\u0638\u0629", "2160": "\u0632\u064a\u0627\u062f\u0629", "2161": "\u2581\u0648\u0628\u0627\u0644\u062a", "2162": "\u2581\u0646\u0647", "2163": "\u0647\u0648\u062f", "2164": "\u062d\u0627\u0641\u0638\u0629", "2165": "\u0638\u0629", "2166": "\u2581\u0646\u0627", "2167": "\u064a\u0641\u0627", "2168": "\u2581\u0623\u0647\u0644", "2169": "\u2581\u0627\u0644\u062c\u0627\u0645", "2170": "\u063a\u0637", "2171": "\u062d\u0627\u0646", "2172": "\u0628\u062f\u0648", "2173": "\u2581\u0645\u0635\u0627\u062f\u0631", "2174": "\u2581\u0628\u0647\u0630\u0627", "2175": "\u2581\u0645\u0641", "2176": "\u2581\u0633\u0645\u0648\u0647", "2177": "\u2581\u0642\u0648\u0627\u062a", "2178": "\u0648\u0632\u064a\u0639", "2179": "\u2581\u062c\u0645\u0639", "2180": "\u0627\u0626\u0629", "2181": "\u0648\u064a\u0627", "2182": "\u063a\u064a\u0631\u0629", "2183": "\u2581\u0627\u0644\u0645\u0635\u0631\u064a\u0629", "2184": "\u2581\u0628\u0637\u0648\u0644\u0629", "2185": "\u2581\u0627\u0644\u0628\u0631\u064a\u0637", "2186": "\u2581\u0625\u0628\u0631\u0627\u0647\u064a\u0645", "2187": "\u2581\u0644\u0630\u0644\u0643", "2188": "\u2581\u0627\u0644\u0628\u062f", "2189": "\u2581\u0627\u062f\u0627\u0631\u0629", "2190": "\u0627\u062a\u0628", "2191": "\u2581\u0645\u0639\u062a", "2192": "\u0627\u0631\u0646\u0629", "2193": "\u2581\u0627\u0644\u0646\u0648", "2194": "\u0639\u0644\u0646\u062a", "2195": "\u0631\u064a\u0628\u0627", "2196": "\u2581\u0627\u062c", "2197": "\u2581\u0627\u0644\u0627\u0633\u0644\u0627\u0645", "2198": "\u2581\u0627\u0644\u062c\u0647\u0627\u062a", "2199": "\u2581\u0631\u0641\u0639", "2200": "\u2581\u0634\u0631\u0643\u0627\u062a", "2201": "\u2581\u0645\u0639\u0638\u0645", "2202": "\u0646\u064a\u0627", "2203": "\u2581\u0627\u0644\u0648\u0636\u0639", "2204": "\u2581\u062a\u0645\u062a", "2205": "\u0627\u0626\u0644\u0629", "2206": "\u0635\u0644\u0627\u062d", "2207": "\u2581\u0644\u0644\u0647", "2208": "\u2581\u0641\u062a\u062d", "2209": "\u2581\u0643\u0644\u0645\u0629", "2210": "\u0635\u0628\u062d\u062a", "2211": "\u2581\u0627\u0644\u0641\u0646\u064a", "2212": "\u2581\u0623\u0639\u0636\u0627\u0621", "2213": "\u2581\u0648\u0645\u062a", "2214": "\u0645\u0648\u064a\u0644", "2215": "\u2581\u0623\u062b\u0646\u0627\u0621", "2216": "\u2581\u0648\u062a\u062a", "2217": "\u2581\u0627\u0644\u0635\u0646\u0627", "2218": "\u2581\u0636\u0631\u0648\u0631\u0629", "2219": "\u2581\u0648\u0641\u0642", "2220": "\u0631\u0648\u062d", "2221": "\u2581\u0627\u0644\u0645\u062c\u0627\u0644", "2222": "\u2581\u0627\u0634\u062a", "2223": "\u2581\u0627\u0644\u062d\u0631\u0645\u064a\u0646", "2224": "\u2581\u0639\u0644\u064a\u0647\u0645", "2225": "\u2581\u0623\u0647\u0645\u064a\u0629", "2226": "\u2581\u0645\u0632", "2227": "\u0641\u062a\u062d", "2228": "\u2581\u0646\u0634\u0631", "2229": "\u2581\u0643\u0627\u0646\u0648\u0627", "2230": "\u2581\u0639\u0634\u0631\u0629", "2231": "\u2581\u062f\u062e\u0644", "2232": "\u2581\u0634\u0628", "2233": "\u2581\u0644\u0645\u062f\u0629", "2234": "\u2581\u0627\u0644\u0639\u0627\u0644\u0645\u064a", "2235": "\u2581\u0627\u0644\u0645\u062d\u0643\u0645\u0629", "2236": "\u0627\u0633\u0645", "2237": "\u2581\u064a\u0639\u0645\u0644", "2238": "\u0643\u0628", "2239": "\u2581\u0633\u0644\u0637\u0627\u0646", "2240": "\u0633\u0643\u0631\u064a", "2241": "\u2581\u0644\u0642\u0627\u0621", "2242": "\u2581\u0627\u0644\u0631\u0633", "2243": "\u2581\u0625\u062d\u062f\u0649", "2244": "\u0627\u0636\u064a", "2245": "ar", "2246": "\u2581\u062a\u0646\u0638\u064a\u0645", "2247": "\u2581\u0639\u0632", "2248": "\u2581\u0645\u0631\u0627", "2249": "\u2581\u0627\u0644\u062d\u0645", "2250": "\u2581\u0633\u064a\u0643\u0648\u0646", "2251": "\u2581\u0627\u0644\u0641\u0644\u0633\u0637\u064a\u0646\u064a\u0629", "2252": "\u2581\u0645\u0643\u062a\u0628", "2253": "\u2581\u0648\u0647\u0645", "2254": "\u2581\u0633\u0648\u0641", "2255": "\u2581\u0627\u0644\u0628\u0646\u0643", "2256": "\u2581\u0627\u0644\u0637\u0631\u064a\u0642", "2257": "\u2581\u0627\u0644\u062d\u064a", "2258": "\u0646\u062f\u064a", "2259": "\u0623\u0644", "2260": "\u2581\u0644\u0627\u0641", "2261": "\u2581\u0627\u0645\u062a", "2262": "\u2581\u0648\u0648", "2263": "\u0642\u062a\u0644", "2264": "\u0631\u064a\u0645\u0629", "2265": "\u0648\u0639\u0629", "2266": "\u2581\u0627\u0648\u0644", "2267": "\u2581\u0634\u0643", "2268": "\u2581\u062f\u0627", "2269": "\u2581\u0635\u0628\u0627\u062d", "2270": "\u2581\u0627\u0644\u0645\u062c\u0645\u0648\u0639\u0629", "2271": "\u2581\u0643\u062b\u064a\u0631", "2272": "\u0639\u0647", "2273": "\u0646\u062f\u064a\u0629", "2274": "\u2581\u0645\u0642\u0631", "2275": "\u2581\u0648\u0647\u0646\u0627", "2276": "\u258150", "2277": "\u0641\u0627\u0648\u0636", "2278": "\u2581\u0644\u0647\u0630\u0647", "2279": "\u0641\u064a\u0627\u062a", "2280": "\u2581\u0627\u0644\u0633\u0648\u0631\u064a", "2281": "\u2581\u062d\u0643\u0648\u0645\u0629", "2282": "\u0646\u0627\u0629", "2283": "\u0627\u062f\u0631\u0629", "2284": "\u2581100", "2285": "\u2581197", "2286": "\u0631\u0627\u062b", "2287": "\u2581\u0641\u0639\u0644", "2288": "\u2581\u0627\u0644\u0642\u0627\u0626", "2289": "\u2581\u0627\u0644\u0646\u0641\u0637", "2290": "\u2581\u062d\u062c\u0645", "2291": "\u2581\u0642\u062a\u0644", "2292": "\u0648\u063a", "2293": "\u2581\u0645\u0646\u062a\u062e\u0628", "2294": "\u2581\u062f\u0645", "2295": "\u0630\u0643", "2296": "\u2581\u0627\u0644\u0633\u0646\u0629", "2297": "\u2581\u0627\u0644\u0628\u0631\u0646", "2298": "\u2581\u0627\u064a\u0636\u0627", "2299": "\u2581\u0627\u0644\u0645\u062b", "2300": "\u0627\u0641\u064a\u0629", "2301": "\u0648\u064a\u0644\u0629", "2302": "\u2581\u0642\u0633\u0645", "2303": "\u2581\u0648\u062a\u062d", "2304": "\u2581\u0627\u0644\u062a\u0631", "2305": "\u2581\u062c\u0632\u0621", "2306": "\u2581\u0648\u0633\u062a", "2307": "\u0639\u0627\u062f", "2308": "\u2581\u0627\u0644\u0645\u0631\u062a", "2309": "\u0633\u0644\u0633\u0644", "2310": "\u2581\u0628\u0644\u063a\u062a", "2311": "\u2581\u0627\u0644\u062d\u0632\u0628", "2312": "\u2581\u0648\u062a\u0623", "2313": "\u2581\u0625\u0644", "2314": "\u2581\u0648\u0627\u0644\u0637", "2315": "\u062d\u062a\u0649", "2316": "\u2581\u0648\u0627\u0644\u0645\u062a", "2317": "\u062f\u0649", "2318": "\u0627\u0626\u0639", "2319": "\u2581\u0628\u0647\u0630\u0647", "2320": "\u2581\u0627\u0644\u0628\u0631\u0646\u0627\u0645\u062c", "2321": "\u2581\u0627\u0644\u0646\u0633", "2322": "\u2581\u0627\u0644\u0645\u0639\u062a", "2323": "\u2581\u0642\u064a\u0645\u0629", "2324": "\u0643\u064a\u062f", "2325": "\u0648\u0631\u0647", "2326": "\u2581\u0638\u0647\u0631", "2327": "\u2581\u064a\u0643", "2328": "\u2581\u0627\u0644\u0641\u0648\u0632", "2329": "\u0627\u0626\u062f\u0629", "2330": "\u2581\u0627\u0644\u0627\u062a\u0641\u0627\u0642", "2331": "\u0647\u0627\u0645", "2332": "\u062e\u0629", "2333": "\u2581\u0631\u062c\u0644", "2334": "\u0630\u0647\u0628", "2335": "\u0641\u0627\u0636", "2336": "\u0648\u0631\u062f", "2337": "\u2581\u0634\u0645\u0627\u0644", "2338": "\u062c\u062a\u0645\u0627\u0639\u064a", "2339": "\u0627\u0646\u062f", "2340": "\u2581\u0628\u0627\u0644\u0642", "2341": "\u2581\u0627\u0644\u062c\u0627\u0646\u0628", "2342": "\u2581\u0627\u0644\u0631\u0628", "2343": "\u2581\u0628\u0628", "2344": "\u2581\u0647\u062f\u0641", "2345": "\u064a\u062d", "2346": "\u2581\u0627\u0644\u062a\u062c\u0627\u0631\u064a\u0629", "2347": "\u0631\u0627\u0632", "2348": "\u2581\u0633\u0627\u0644\u0645", "2349": "\u2581\u0627\u0644\u0645\u064a\u0627\u0647", "2350": "\u0627\u0644\u063a", "2351": "\u0639\u0631\u0636", "2352": "\u2581\u0627\u0644\u062d\u0627", "2353": "\u0645\u062f\u064a\u0646\u0629", "2354": "\u258126", "2355": "\u2581\u064a\u0639\u062a\u0628\u0631", "2356": "\u2581\u062f\u064a\u0646\u0627\u0631", "2357": "\u2581\u0645\u0627\u0631\u0633", "2358": "\u0631\u064a\u0644", "2359": "\u2581\u0627\u0644\u0623\u0633\u0628\u0648\u0639", "2360": "\u062e\u0631\u0627", "2361": "\u0622\u062a", "2362": "\u0648\u0631\u0648\u0628\u0627", "2363": "\u2581\u0628\u064a\u0631\u0648\u062a", "2364": "\u0637\u0627", "2365": "\u25812010", "2366": "\u0632\u064a\u0646", "2367": "\u2581\u0628\u0627\u0644\u0641", "2368": "\u0628\u064a\u0647", "2369": "\u2581\u0633\u0627", "2370": "\u2581\u062c\u0646\u064a", "2371": "\u258127", "2372": "\u0644\u0627\u0643", "2373": "\u0633\u0627\u0646\u064a\u0629", "2374": "\u2581\u0627\u0644\u062d\u062f\u0648\u062f", "2375": "\u2581\u0627\u0644\u0623\u0645\u0631\u064a\u0643\u064a\u0629", "2376": "\u0641\u0627\u0638", "2377": "\u0627\u0645\u062a", "2378": "\u2581\u0637\u0627\u0644", "2379": "\u0636\u064a\u0641", "2380": "\u2581\u0648\u0627\u0641", "2381": "\u2581\u0645\u0635\u062f\u0631", "2382": "\u2581\u0645\u062f\u0649", "2383": "\u2581\u0627\u0644\u0645\u0634\u0627\u0631\u064a\u0639", "2384": "\u2581\u0633\u0641", "2385": "\u2581\u0627\u0644\u0645\u0633\u0644\u0645\u064a\u0646", "2386": "\u2581\u0627\u062a\u062e", "2387": "\u2581\u0627\u0644\u0645\u0648\u0636\u0648\u0639", "2388": "\u2581\u0627\u0644\u0634\u0631\u064a\u0641\u064a\u0646", "2389": "\u2581\u0645\u062d\u062f", "2390": "\u0628\u0646\u0649", "2391": "\u2581\u0627\u0644\u0641\u0646", "2392": "\u0646\u062f\u0633", "2393": "\u062d\u062f\u0627\u062b", "2394": "\u2581\u0627\u0644\u0628\u064a\u0627\u0646", "2395": "\u2581\u0627\u0644\u062c\u0644", "2396": "\u2581\u0628\u0630\u0644\u0643", "2397": "\u2581\u0627\u0644\u0646\u0642", "2398": "\u2581\u0648\u063a", "2399": "\u2581\u0643\u0628\u064a\u0631\u0627", "2400": "\u0627\u0641\u0639", "2401": "\u2581\u0645\u0643\u062a", "2402": "\u0631\u0627\u062a\u064a\u062c\u064a\u0629", "2403": "\u0627\u0645\u064a\u0629", "2404": "\u2581\u0627\u0644\u0633\u0644\u0637\u0629", "2405": "\u2581\u0627\u0644\u0645\u062e\u062a\u0644\u0641", "2406": "\u0631\u0647\u0627", "2407": "\u0631\u064a\u0627\u062a", "2408": "\u2581\u0644\u0644\u0641", "2409": "\u2581\u0627\u0644\u0634\u0647", "2410": "\u0639\u0627\u0628", "2411": "\u2581\u0634\u0643\u0644", "2412": "\u0644\u0627\u0626", "2413": "\u2581\u0642\u0627\u0645\u062a", "2414": "\u2581\u0644\u0639\u0628", "2415": "\u2581\u0627\u0644\u0643\u062a\u0627\u0628", "2416": "\u0648\u0631\u0648\u0628\u064a", "2417": "\u2581\u0648\u062d\u062a\u0649", "2418": "\u2581\u0645\u063a", "2419": "\u0644\u0641\u0632\u064a", "2420": "\u0628\u064a\u0639", "2421": "\u2581\u0627\u0644\u0631\u062c\u0644", "2422": "\u2581\u064a\u0631\u064a\u062f", "2423": "\u0643\u0627\u0644", "2424": "\u0637\u0627\u062a", "2425": "\u2581\u0627\u0644\u0628\u062d\u062b", "2426": "\u258128", "2427": "\u2581\u0627\u0644\u062a\u0646\u0645\u064a\u0629", "2428": "\u0634\u0637\u0629", "2429": "\u064a\u062f\u0627\u0646", "2430": "\u0628\u0639\u0629", "2431": "\u0648\u0627\u0639", "2432": "\u2581\u0641\u0644\u0633\u0637", "2433": "\u2581\u064a\u0646\u0627\u064a\u0631", "2434": "\u2581\u0627\u0644\u0647\u0644\u0627\u0644", "2435": "\u0631\u0627\u0637\u064a\u0629", "2436": "\u2581\u0637\u0644", "2437": "\u2581\u0627\u0644\u0639\u0644\u064a\u0627", "2438": "\u0627\u0637\u0642", "2439": "\u2581\u0627\u0644\u0639\u0631\u0627\u0642\u064a", "2440": "\u2581\u062f\u0627\u0631", "2441": "\u2581\u0627\u0644\u062c\u0645\u0647\u0648\u0631\u064a\u0629", "2442": "\u2581\u0645\u062d\u0645\u0648\u062f", "2443": "\u2581196", "2444": "\u0646\u0627\u0642", "2445": "\u2581\u062a\u0632", "2446": "\u0645\u0648\u0627\u0644", "2447": "\u0645\u064a\u0645", "2448": "\u0646\u062f\u0627", "2449": "\u2581\u0627\u0644\u0637\u0627\u0642\u0629", "2450": "\u2581\u0627\u0644\u0623\u0628", "2451": "\u2581\u0648\u0639\u062f\u0645", "2452": "\u2581\u062e\u0627\u0635", "2453": "\u0638\u064a\u0641", "2454": "\u2581\u064a\u0644", "2455": "\u0627\u0628\u0646", "2456": "\u2581\u0627\u0644\u0631\u063a\u0645", "2457": "\u2581\u062e\u0627\u062f\u0645", "2458": "\u2581\u0628\u0627\u0644\u0634", "2459": "\u2581\u0648\u0628\u0627\u0644", "2460": "\u2581\u0639\u0634", "2461": "\u2581\u0627\u0644\u0643\u0648\u064a\u062a\u064a", "2462": "\u2581\u0627\u0644\u0639\u0645\u0644\u064a\u0629", "2463": "\u2581\u0627\u0644\u0645\u062f\u0646\u064a", "2464": "\u2581\u0645\u062e\u062a\u0644\u0641\u0629", "2465": "\u062c\u0627\u062c", "2466": "\u2581\u0627\u0644\u0643\u0631\u0629", "2467": "\u0627\u064a\u062f", "2468": "\u2581\u0627\u0644\u062d\u0648\u0627\u0631", "2469": "\u2581\u0646\u0641\u0633\u0647\u0627", "2470": "\u2581me", "2471": "\u062a\u0647\u0627\u0621", "2472": "\u2581\u0642\u0627\u0644\u062a", "2473": "\u2581\u0627\u0644\u0633\u0648\u062f", "2474": "\u2581\u0633\u0628\u064a\u0644", "2475": "\u2581\u0627\u0644\u0634\u0631\u0642\u064a\u0629", "2476": "\u0633\u0648\u0646", "2477": "\u2581\u0627\u0628\u0631\u0627\u0647\u064a\u0645", "2478": "\u2581\u0627\u0644\u0627\u0648\u0644\u0649", "2479": "\u2581\u0627\u0644\u0645\u062e\u062a\u0644\u0641\u0629", "2480": "\u2581\u0623\u0631\u0636", "2481": "\u2581\u0625\u062c", "2482": "\u0627\u0628\u0647", "2483": "\u2581\u062d\u0628", "2484": "\u2581\u062f\u0627\u0626\u0645\u0627", "2485": "\u0627\u0645\u0646", "2486": "\u2581\u0627\u0644\u0645\u0642\u0627", "2487": "\u0648\u0639\u064a\u0629", "2488": "\u2581\u0623\u0639\u0644\u0646", "2489": "\u0631\u0627\u0636\u064a", "2490": "\u0648\u062d\u0629", "2491": "\u25812008", "2492": "\u2581\u062e\u062f\u0645\u0629", "2493": "\u0628\u064a\u0628", "2494": "\u2581\u0634\u0639\u0628", "2495": "\u2581\u0639\u064a\u0646", "2496": "\u2581\u062d\u0648\u0627\u0644\u064a", "2497": "\u2581\u0627\u0644\u062a\u0627\u0628\u0639\u0629", "2498": "\u2581\u0627\u062a\u062d\u0627\u062f", "2499": "\u2581\u0627\u0644\u0645\u0641", "2500": "\u2581\u0627\u0644\u0633\u0627\u0628\u0642\u0629", "2501": "\u0631\u064a\u062f\u0629", "2502": "\u2581\u0627\u0644\u0648\u062d", "2503": "\u064a\u0632\u0629", "2504": "\u2581\u0648\u0627\u0644\u0631", "2505": "\u064a\u0631\u0647", "2506": "\u2581\u0627\u0644\u0645\u0637\u0644", "2507": "\u2581\u0648\u063a\u064a\u0631\u0647\u0627", "2508": "\u2581\u063a\u0632\u0629", "2509": "\u2581\u0648\u0627\u0642", "2510": "\u2581\u0645\u0646\u0627\u0637\u0642", "2511": "\u2581\u0628\u0646\u062a", "2512": "\u0641\u0631\u064a\u0642\u064a\u0627", "2513": "\u2581\u0644\u0644\u0637", "2514": "\u2581\u0627\u0644\u0646\u0638\u0631", "2515": "\u2581\u0627\u0644\u0645\u0644", "2516": "\u2581\u0641\u0648\u0632", "2517": "\u2581\u0627\u0644\u0642\u0631\u0646", "2518": "\u0648\u0644\u062a", "2519": "\u2581\u0646\u062a\u0627\u0626\u062c", "2520": "\u2581\u0642\u0636\u064a\u0629", "2521": "\u0633\u0631\u0627\u0626\u064a\u0644\u064a\u0629", "2522": "\u2581\u0646\u0633\u0645\u0629", "2523": "\u2581\u0627\u0644\u0643\u0628", "2524": "\u0627\u0626\u0647", "2525": "\u2581\u0627\u0644\u0625\u062f", "2526": "\u2581\u0641\u064a\u0635\u0644", "2527": "\u2581\u0627\u0644\u062c\u0645\u0639\u0629", "2528": "\u0648\u0627\u0641", "2529": "\u2581\u064a\u0648\u062c\u062f", "2530": "\u2581\u0627\u0644\u0645\u0631\u0643", "2531": "\u0648\u0634", "2532": "\u2581\u062f\u0631\u0647\u0645", "2533": "\u0648\u0627\u0646\u064a\u0646", "2534": "\u0623\u0644\u0629", "2535": "\u062e\u0635\u0635\u0629", "2536": "\u2581\u0627\u0644\u0623\u0641", "2537": "\u2581\u0623\u0635\u0628\u062d", "2538": "\u2581\u0627\u0644\u0623\u0645\u064a\u0631\u0643\u064a\u0629", "2539": "\u2581\u0627\u0644\u0646\u064a", "2540": "\u062c\u0639", "2541": "\u0627\u0628\u0642\u0629", "2542": "\u2581\u0627\u0644\u062f\u0639", "2543": "\u2581\u0627\u0644\u0632\u0631\u0627", "2544": "\u0627\u064a\u0629", "2545": "\u0635\u0644\u0629", "2546": "\u2581\u0627\u0644\u0628\u062d", "2547": "\u2581\u0627\u0641", "2548": "\u0647\u0645\u064a\u0629", "2549": "\u2581\u0648\u0627\u0644\u0644\u0647", "2550": "\u2581\u0627\u0644\u0628\u0634\u0631", "2551": "\u2581\u0627\u0644\u062b\u0627\u0644\u062b\u0629", "2552": "\u2581\u0627\u0644\u062c\u0632\u0627\u0626", "2553": "\u2581\u0633\u064a\u0646", "2554": "\u2581\u0648\u0627\u0639", "2555": "\u0631\u0641\u0636", "2556": "\u2581\u0627\u0628\u062a", "2557": "\u2581\u0648\u064a\u0631", "2558": "\u2581\u0627\u0644\u062c\u0627\u0631\u064a", "2559": "\u0643\u0627\u0646\u064a\u0629", "2560": "\u0631\u0627\u0647", "2561": "\u2581\u0634\u0623\u0646", "2562": "\u0648\u0632\u0627\u0631\u0629", "2563": "\u2581\u0627\u062e\u0631\u0649", "2564": "\u0633\u064a\u0642", "2565": "\u2581\u0648\u0644\u0648", "2566": "\u064a\u0631\u0627\u062a", "2567": "\u062c\u0644\u064a", "2568": "\u2581\u0627\u0644\u0648\u0632\u064a\u0631", "2569": "\u0630\u0646", "2570": "\u0645\u0646\u0649", "2571": "\u2581\u0646\u0648\u0641", "2572": "\u0642\u0631\u0631", "2573": "\u0639\u0648", "2574": "\u2581\u0627\u0644\u0623\u0637\u0641\u0627\u0644", "2575": "\u0648\u0628\u064a", "2576": "\u2581\u0627\u0644\u0641\u0631\u0646\u0633\u064a", "2577": "\u2581\u0633\u0628\u062a", "2578": "\u2581\u0628\u0627\u0644\u0633", "2579": "\u0632\u064a\u0627\u0631\u0629", "2580": "\u2581\u0623\u0635\u062d\u0627\u0628", "2581": "\u2581\u0627\u0644\u0643\u0648\u064a\u062a\u064a\u0629", "2582": "\u2581\u0648\u064a\u0645", "2583": "\u2581\u0627\u0644\u0646\u0628\u064a", "2584": "\u0631\u064a\u0643", "2585": "\u062b\u0628\u062a", "2586": "\u2581\u0628\u0644\u062f", "2587": "\u2581\u0627\u0644\u0633\u064a\u062f", "2588": "\u2581\u0627\u0644\u0627\u062e\u062a", "2589": "\u2581\u0648\u0633\u0627\u0626\u0644", "2590": "\u2581\u0627\u0644\u0635\u0641", "2591": "\u2581\u0627\u0644\u0627\u0642\u062a\u0635\u0627\u062f\u064a", "2592": "\u2581\u0639\u0647\u062f", "2593": "\u2581\u0627\u0644\u0625\u062e", "2594": "\u2581\u0627\u0644\u0641\u0646\u064a\u0629", "2595": "\u2581\u0627\u0644\u0645\u0631\u0636", "2596": "\u2581\u062f\u0648\u0631\u064a", "2597": "\u2581\u0643\u0644\u0645", "2598": "\u2581\u0627\u0645\u0627", "2599": "\u0648\u0628\u0627\u062a", "2600": "\u0639\u064a\u0645", "2601": "\u2581\u064a\u062a\u0639\u0644\u0642", "2602": "\u0631\u0633\u0629", "2603": "\u2581\u0627\u0644\u0645\u0624\u0633\u0633\u0627\u062a", "2604": "\u2581\u062d\u064a", "2605": "\u2581\u0639\u0642\u0628", "2606": "\u2581\u0627\u0644\u0643\u0647\u0631\u0628", "2607": "\u0631\u064a\u0633", "2608": "\u2581\u0627\u0644\u0645\u062d\u0644\u064a", "2609": "\u2581\u0648\u0627\u0636", "2610": "\u0646\u0627\u0626\u064a\u0629", "2611": "\u2581\u0642\u0648\u0644", "2612": "\u2581\u0648\u0627\u0644\u0645\u0646", "2613": "am", "2614": "\u2581\u0639\u0631\u0641", "2615": "\u062a\u0646\u0627", "2616": "\u2581\u062c\u0648", "2617": "\u2581\u0645\u0646\u0627\u0641", "2618": "\u258140", "2619": "\u0630\u0644", "2620": "\u2581\u0631\u0645\u0636\u0627\u0646", "2621": "\u2581\u0633\u064a\u0631", "2622": "\u2581\u0627\u0644\u0641\u0644\u0633\u0637\u064a\u0646\u064a", "2623": "\u2581\u0623\u0644\u0645", "2624": "\u2581\u0627\u062a\u0641\u0627\u0642", "2625": "\u2581\u0645\u0624\u0633\u0633\u0629", "2626": "\u0646\u0627\u0647", "2627": "\u0641\u0627\u062f\u0629", "2628": "\u0645\u0631\u064a", "2629": "\u2581\u062c\u0647\u0648\u062f", "2630": "\u2581\u0627\u0644\u0639\u0632\u064a\u0632", "2631": "\u2581\u0623\u0633\u0639\u0627\u0631", "2632": "\u0631\u064a\u0639", "2633": "\u2581\u0627\u0644\u0648\u0627\u0642\u0639", "2634": "\u2581\u062a\u0639\u0645\u0644", "2635": "\u2581\u0627\u0644\u0648\u0633\u0637", "2636": "\u2581\u0627\u0644\u062c\u0632\u0627\u0626\u0631", "2637": "\u0630\u0627\u0631", "2638": "\u2581\u062a\u062d\u062f\u062b", "2639": "\u0647\u0627\u0631", "2640": "\u2581\u0627\u0644\u0645\u0633\u062a\u0648\u0649", "2641": "\u0645\u0627\u062f", "2642": "\u0648\u0627\u0633", "2643": "\u0623\u0633\u064a\u0633", "2644": "\u0627\u0646\u0649", "2645": "\u2581\u062d\u0641\u0638", "2646": "\u2581\u0627\u0644\u062c\u0647\u0627\u0632", "2647": "\u0641\u0649", "2648": "50", "2649": "\u0627\u0634\u062f", "2650": "\u0623\u064a", "2651": "\u2581\u0627\u0644\u0645\u062f\u0631\u0628", "2652": "\u0631\u0641\u064a\u0646", "2653": "\u2581\u0645\u0642\u0627\u0631\u0646\u0629", "2654": "\u2581\u0636\u0639", "2655": "\u2581\u0627\u0644\u0645\u062e\u062a", "2656": "\u2581\u064a\u0642\u062f\u0645", "2657": "\u2581\u062e\u0644", "2658": "\u0643\u0631\u0647", "2659": "\u2581\u0627\u0644\u0645\u0627\u0626\u0629", "2660": "\u2581\u0625\u064a", "2661": "\u2581\u062e\u0644\u0627\u0644\u0647\u0627", "2662": "\u2581\u0648\u0639\u0646\u062f", "2663": "\u2581\u064a\u0630\u0643\u0631", "2664": "\u2581\u0627\u0644\u0642\u0637", "2665": "\u2581\u062f\u0641\u0639", "2666": "\u0633\u0645\u0649", "2667": "\u2581\u0627\u0644\u064a\u0627\u0628", "2668": "\u0648\u0646\u0627", "2669": "\u2581\u0627\u0644\u063a\u0631\u0628\u064a\u0629", "2670": "\u2581\u0627\u0644\u0623\u0648\u0633\u0637", "2671": "\u2581\u0627\u0644\u0623\u0635", "2672": "\u0631\u0639", "2673": "\u2581\u0645\u0624\u062a\u0645\u0631", "2674": "\u2581\u062a\u0642\u0631\u064a\u0631", "2675": "\u2581\u0648\u0627\u062a", "2676": "\u2581\u0641\u0631\u0635\u0629", "2677": "\u258129", "2678": "\u063a\u064a\u0644", "2679": "\u25812009", "2680": "\u2581\u0627\u0644\u0645\u0624\u0633\u0633\u0629", "2681": "\u2581\u064a\u0648\u0644", "2682": "om", "2683": "\u0642\u0637\u0627\u0639", "2684": "\u0631\u0648\u0628", "2685": "\u2581\u0645\u0628\u0627\u0634\u0631\u0629", "2686": "\u2581\u0646\u0645\u0648", "2687": "\u2581\u0627\u0644\u0645\u0633\u0627\u0639\u062f", "2688": "\u0644\u064a\u0641\u0629", "2689": "\u2581\u0627\u0644\u0639\u0633\u0643\u0631\u064a\u0629", "2690": "\u2581\u0645\u0627\u062a", "2691": "\u2581\u0633\u0628\u062a\u0645\u0628\u0631", "2692": "\u2581\u0648\u0627\u0644\u062a\u0639\u0644\u064a\u0645", "2693": "\u2581\u064a\u0623\u062a\u064a", "2694": "\u0644\u0643\u062a\u0631", "2695": "\u064a\u0628\u0629", "2696": "\u2581\u0627\u0644\u0623\u0645\u0646\u064a\u0629", "2697": "\u2581\u0627\u0644\u0646\u0633\u0627\u0621", "2698": "\u062c\u0631\u0629", "2699": "\u0645\u0648\u0639", "2700": "\u2581\u0645\u0634\u062a", "2701": "\u2581\u0633\u0648\u0649", "2702": "\u064a\u062f\u0647", "2703": "\u2581\u0648\u0628\u0627\u0644\u062a\u0627\u0644\u064a", "2704": "\u0642\u0641", "2705": "\u2581\u0645\u0647\u0645\u0629", "2706": "\u2581\u0645\u0648\u0636\u0648\u0639", "2707": "\u2581\u0644\u0643\u0646\u0647", "2708": "\u0643\u0627\u0641", "2709": "\u2581\u0644\u0639\u062f", "2710": "\u25812006", "2711": "\u2581\u0627\u0644\u0637\u0628\u064a\u0629", "2712": "\u2581\u0643\u064a", "2713": "\u2581\u0623\u0634\u0647\u0631", "2714": "\u2581\u0639\u0628\u0627\u0633", "2715": "\u0630\u0629", "2716": "\u0631\u064a\u0646", "2717": "\u2581\u062d\u0631\u0628", "2718": "\u0648\u0647\u0627", "2719": "\u2581\u0625\u0637\u0627\u0631", "2720": "\u2581\u0639\u0644\u064a\u0646\u0627", "2721": "\u2581\u0627\u0644\u0643\u0628\u0631\u0649", "2722": "\u2581\u0648\u0637\u0646", "2723": "\u2581\u0648\u0641\u0642\u0627", "2724": "\u0645\u0627\u0647\u064a\u0631", "2725": "\u2581\u0644\u0641", "2726": "\u2581\u062a\u0648\u0642", "2727": "\u0631\u0648\u0637", "2728": "\u2581\u0627\u0644\u0647\u062f\u0641", "2729": "\u2581\u062a\u0643\u0646", "2730": "\u2581\u0623\u0642\u0644", "2731": "\u0645\u0644\u062a", "2732": "\u0627\u062f\u064a\u0645", "2733": "\u2581\u0643\u062b\u064a\u0631\u0629", "2734": "\u2581\u0627\u0644\u0627\u0633\u062a\u062b\u0645", "2735": "\u2581\u0627\u0644\u0627\u0633\u062a\u062b\u0645\u0627\u0631", "2736": "\u0634\u0627\u0637", "2737": "\u258131", "2738": "\u2581\u0627\u0644\u0643\u0631\u064a\u0645", "2739": "\u2581\u0644\u0645\u0639", "2740": "\u2581\u0645\u0639\u0627", "2741": "\u0648\u064a\u0646", "2742": "\u0645\u0631\u062a", "2743": "\u0628\u0627\u062f\u0644", "2744": "\u064a\u0644\u0645", "2745": "\u2581\u0645\u062f\u0631\u0628", "2746": "\u2581\u062a\u0648\u0641\u064a\u0631", "2747": "\u2581\u0645\u0627\u0631", "2748": "\u2581\u062e\u064a\u0631", "2749": "\u2581\u0633\u064a\u062a\u0645", "2750": "\u0644\u0641\u062a", "2751": "\u0642\u0648\u0645", "2752": "\u2581\u0627\u0644\u062d\u0631\u064a\u0631\u064a", "2753": "\u2581\u0627\u0644\u0642\u0636\u064a\u0629", "2754": "\u0628\u0627\u062f\u0631\u0629", "2755": "\u2581\u0635\u062d\u064a\u0641\u0629", "2756": "\u0628\u0627\u0631\u0627\u062a", "2757": "\u2581\u0648\u064a\u0633", "2758": "\u062f\u064a\u0646", "2759": "\u2581\u062d\u0633", "2760": "\u2581\u062a\u0642\u0648\u0644", "2761": "\u25812011", "2762": "\u2581\u062f\u0631\u062c\u0629", "2763": "\u2581\u062a\u0635\u0644", "2764": "in", "2765": "\u2581\u0627\u0644\u062e\u0645\u064a\u0633", "2766": "\u0645\u0627\u0631", "2767": "\u0635\u062f\u0627\u0631", "2768": "\u2581\u0627\u0644\u0628\u0644\u062f\u064a\u0629", "2769": "\u2581\u062a\u0642\u0639", "2770": "\u063a\u0631", "2771": "\u2581\u0648\u0635\u0641", "2772": "\u2581\u062a\u062d\u0645\u0644", "2773": "\u2581\u0646\u0635\u0641", "2774": "\u0648\u0627\u062c\u0647", "2775": "\u2581\u0648\u062a\u0633", "2776": "\u2581\u0642\u0648\u0629", "2777": "\u0634\u0627\u0631\u0629", "2778": "\u0648\u0627\u0642\u0641", "2779": "\u2581\u0628\u062f\u0631", "2780": "\u2581\u0642\u0627\u0626\u0644\u0627", "2781": "\u0636\u0649", "2782": "\u0641\u064a\u0629", "2783": "\u2581\u062f\u064a\u0633", "2784": "\u0630\u064a\u0646", "2785": "\u2581\u0631\u062f", "2786": "\u2581\u0627\u0641\u062a\u062a", "2787": "\u0637\u0648\u0631", "2788": "\u2581\u0625\u0644\u064a\u0647\u0627", "2789": "\u2581\u0627\u0644\u062f\u0648\u0631\u0629", "2790": "\u2581\u0627\u0644\u0631\u064a\u0627\u0636\u064a\u0629", "2791": "\u064a\u0627\u0633", "2792": "\u2581\u064a\u0635\u0644", "2793": "\u2581\u0627\u0644\u0641\u0636", "2794": "\u2581\u0627\u0644\u0628\u064a\u062a", "2795": "\u2581\u0628\u0645\u0639", "2796": "\u2581\u0627\u062e\u062a\u064a\u0627\u0631", "2797": "\u2581\u0645\u0631\u062d\u0644\u0629", "2798": "\u2581\u0627\u0644\u0645\u0633\u0624\u0648\u0644\u064a\u0646", "2799": "\u2581\u0627\u0644\u0633\u064a\u0627\u0631\u0627\u062a", "2800": "\u0639\u0627\u0645\u0644", "2801": "\u2581\u0627\u0645\u0631", "2802": "\u2581\u0627\u0644\u062a\u0639\u0627\u0645\u0644", "2803": "\u0631\u064a\u0639\u0629", "2804": "\u2581\u062c\u0645\u0639\u064a\u0629", "2805": "\u2581\u064a\u062d\u062f\u062b", "2806": "\u2581\u0644\u0644\u0631", "2807": "\u2581\u0627\u0644\u0647\u0646\u062f", "2808": "\u2581\u0622\u0644\u0627\u0641", "2809": "\u2581\u0627\u0644\u0633\u0628", "2810": "\u0627\u062a\u064a", "2811": "\u2581\u0633\u0644\u0627\u0645", "2812": "\u2581\u062f\u0631\u0627\u0633\u0629", "2813": "\u2581\u0631\u064a\u0627", "2814": "\u2581\u0645\u0648\u0642\u0641", "2815": "\u2581\u0627\u0644\u0623\u062e\u064a\u0631", "2816": "\u2581\u0648\u0638", "2817": "\u2581\u0644\u062a\u0646", "2818": "\u0627\u0631\u0642\u0629", "2819": "\u2581\u062f\u0631\u0627", "2820": "\u0631\u0627\u0621\u0629", "2821": "\u2581\u0645\u0644\u0627\u064a\u064a\u0646", "2822": "at", "2823": "\u2581\u062a\u0637\u0628\u064a\u0642", "2824": "\u2581\u0627\u0644\u0637\u0628", "2825": "\u2581\u0627\u0644\u0625\u0633", "2826": "\u2581\u0627\u0644\u062d\u0631\u0643\u0629", "2827": "\u2581\u0628\u0648\u0631", "2828": "\u0648\u0627\u0632", "2829": "\u2581\u0631\u0627", "2830": "\u2581\u0627\u0644\u0633\u0628\u062a", "2831": "\u2581\u0628\u0627\u0644\u062c", "2832": "\u2581\u0631\u0627\u0634\u062f", "2833": "\u2581\u0628\u0627\u0644\u0627", "2834": "\u2581\u0644\u0627\u062a", "2835": "\u2581\u0634\u0647", "2836": "\u2581\u0642\u0627\u0626\u0645\u0629", "2837": "\u0638\u0627\u0631", "2838": "\u2581\u06481", "2839": "\u0641\u064a\u0642", "2840": "\u2581\u062a\u062a\u0645", "2841": "\u2581\u0625\u0639\u0627\u062f\u0629", "2842": "\u0633\u0627\u0633\u064a", "2843": "\u062e\u062f\u0645\u0629", "2844": "\u2581\u0627\u0644\u0645\u0646\u0638\u0645\u0629", "2845": "\u0634\u0627", "2846": "\u2581\u0627\u0644\u0633\u0631", "2847": "\u2581\u0628\u064a\u0639", "2848": "\u063a\u0627\u0644", "2849": "\u2581\u0628\u062d\u062b", "2850": "\u2581\u0627\u0644\u0639\u0645\u0627\u0644", "2851": "\u2581\u0628\u062b", "2852": "\u2581\u0627\u0644\u062d\u0635\u0648\u0644", "2853": "\u062f\u0627\u0648\u0644", "2854": "\u0642\u0644\u062a", "2855": "\u2581\u062e\u0645\u0633\u0629", "2856": "\u0628\u062f\u0627\u0644", "2857": "\u2581\u0645\u0627\u0646", "2858": "\u0647\u0627\u062c\u0645", "2859": "\u2581\u064a\u0648\u0646\u064a\u0648", "2860": "20", "2861": "\u062f\u064a\u062b\u0629", "2862": "\u0631\u064a\u0636", "2863": "\u2581\u0628\u0627\u0644\u0643", "2864": "\u2581\u0646\u0642\u0627\u0637", "2865": "\u2581\u0627\u0644\u0631\u0627\u0628\u0639", "2866": "\u0648\u0645\u064a", "2867": "\u064a\u0631\u0627\u0646\u064a", "2868": "\u2581\u0646\u0633\u0628", "2869": "\u0631\u064a\u0628\u0629", "2870": "\u0627\u0635\u064a\u0644", "2871": "\u0627\u062d\u064a\u0629", "2872": "\u2581\u064a\u062d\u064a", "2873": "\u2581\u062a\u0639\u062a\u0628\u0631", "2874": "\u2581\u0637\u0648\u064a\u0644\u0629", "2875": "\u2581\u0627\u062c\u0644", "2876": "\u0648\u0646\u0633", "2877": "\u0628\u0631\u0629", "2878": "\u2581\u062a\u0634\u0643\u064a\u0644", "2879": "\u2581\u0635\u062d\u064a\u062d", "2880": "\u0641\u064a\u0630\u064a", "2881": "\u2581\u0645\u0627\u064a\u0648", "2882": "\u2581\u0627\u0646\u062a\u0647", "2883": "\u0627\u0637\u0631", "2884": "\u25812007", "2885": "\u0627\u0631\u062a\u0647", "2886": "\u2581\u0627\u0644\u062f\u0631\u0627\u0633\u0629", "2887": "\u2581\u0641\u0631\u0646\u0633\u0627", "2888": "\u2581\u0648\u0647\u0630\u0647", "2889": "\u2581\u0627\u0644\u062a\u062c\u0627\u0631\u0629", "2890": "\u2581\u0627\u0644\u0633\u0646\u0648\u0627\u062a", "2891": "\u2581\u064a\u063a", "2892": "\u2581\u0625\u0646\u0647\u0627", "2893": "\u0648\u064a\u062f", "2894": "\u2581\u0625\u064a\u0631\u0627\u0646", "2895": "\u0643\u0646\u064a\u0629", "2896": "\u0628\u0631\u0627\u064a\u0631", "2897": "\u2581\u0646\u0632", "2898": "\u2581\u0627\u0644\u0634\u0624\u0648\u0646", "2899": "\u2581\u0643\u0627\u0631", "2900": "\u2581\u0648\u0627\u0644\u062a\u0646", "2901": "\u2581\u0627\u0644\u0645\u062d\u0627", "2902": "\u2581\u0648\u0628\u062f", "2903": "\u2581\u0641\u0645\u0627", "2904": "\u2581\u0644\u064a\u062a", "2905": "\u2581\u0627\u0644\u0623\u0645\u0648\u0631", "2906": "\u2581\u0635\u0648\u0631\u0629", "2907": "\u2581\u0628\u0639\u062f\u0645\u0627", "2908": "\u2581\u0641\u0647\u064a", "2909": "\u25812012", "2910": "\u2581\u0627\u0644\u0643\u0628\u064a\u0631\u0629", "2911": "\u2581\u0627\u0644\u062d\u062c", "2912": "\u0643\u0631\u064a\u0645", "2913": "\u2581\u0627\u0644\u0645\u062a\u0647\u0645", "2914": "\u2581\u0627\u0644\u0633\u0627\u062f", "2915": "\u2581\u062a\u0639\u0632\u064a\u0632", "2916": "\u0631\u064a\u062a", "2917": "\u2581\u062a\u0645\u0643\u0646", "2918": "\u062e\u0644\u0635", "2919": "\u062e\u0641\u0636", "2920": "\u2581\u0627\u0644\u0631\u062d\u0645\u0646", "2921": "\u2581\u0627\u0644\u0645\u0628\u0627", "2922": "\u2581\u0625\u064a\u062c", "2923": "\u0633\u0644\u0629", "2924": "\u2581\u0627\u0644\u0639\u064a\u0646", "2925": "\u2581\u0627\u0644\u062a\u0646\u0641\u064a\u0630", "2926": "\u2581\u0627\u0644\u0647\u0627", "2927": "\u2581\u0641\u0636\u0644\u0627", "2928": "\u2581\u0627\u0644\u062a\u0642\u0631\u064a\u0631", "2929": "\u2581\u0645\u0637", "2930": "\u2581fb", "2931": "\u0648\u064a\u0633", "2932": "\u2581\u0633\u0627\u0639\u0629", "2933": "\u2581\u062e\u062f\u0645\u0627\u062a", "2934": "\u2581\u0627\u0644\u0623\u062c", "2935": "\u0635\u0627\u0635", "2936": "\u2581\u0645\u0634\u0627\u0631\u064a\u0639", "2937": "\u2581\u0648\u0646\u062d\u0646", "2938": "\u0648\u0646\u0647", "2939": "\u2581\u0627\u0644\u0646\u0645\u0648", "2940": "\u2581\u0627\u0644\u062f\u0633\u062a\u0648\u0631", "2941": "\u2581\u0641\u0628\u0631\u0627\u064a\u0631", "2942": "\u2581\u0627\u0644\u0627\u0639\u0644\u0627\u0645", "2943": "\u2581\u0627\u0644\u062d\u0627\u0644\u064a\u0629", "2944": "\u2581\u0643\u0631", "2945": "\u2581\u0628\u0631\u0627\u0645\u062c", "2946": "\u2581\u062f\u064a\u0633\u0645\u0628\u0631", "2947": "\u062b\u0645\u0627\u0646", "2948": "\u062e\u062f\u0645\u0627\u062a", "2949": "\u2581\u062a\u0639\u062a", "2950": "\u064a\u0645\u0627\u0646", "2951": "\u2581\u0648\u0627\u0646\u062a", "2952": "\u2581\u0648\u062d\u062f\u0629", "2953": "\u2581\u0633\u064a\u062f", "2954": "\u2581\u0627\u0644\u0627\u0644", "2955": "\u2581\u062c\u062f\u0629", "2956": "\u2581\u0627\u0644\u0646\u0648\u0627\u0628", "2957": "\u2581\u0648\u0627\u0644\u063a", "2958": "\u0631\u0627\u0641\u0642", "2959": "\u2581\u0627\u0644\u0645\u062d\u0627\u0641\u0638\u0629", "2960": "\u2581\u0645\u0646\u0638\u0645\u0629", "2961": "\u2581\u0627\u0644\u0645\u062f\u0627\u0631\u0633", "2962": "\u2581\u0646\u0628", "2963": "\u2581\u0648\u0641\u0627", "2964": "ou", "2965": "\u2581\u0627\u0644\u0623\u0633\u062a\u0627\u0630", "2966": "\u2581\u064a\u0648\u0645\u0627", "2967": "\u2581\u0648\u062c\u0627\u0621", "2968": "\u064a\u0627\u062c\u0627\u062a", "2969": "\u2581\u0628\u0631\u064a\u0637", "2970": "\u2581\u0642\u0644\u0628", "2971": "\u0627\u0644\u062c\u0629", "2972": "\u064a\u0646\u064a\u064a\u0646", "2973": "\u2581\u0648\u0625\u0630\u0627", "2974": "\u2581\u0633\u0639\u0631", "2975": "\u2581\u0633\u0645\u0639", "2976": "\u0628\u0627\u0642", "2977": "\u2581\u064a\u0645\u062b\u0644", "2978": "\u0634\u0631\u0627\u0641", "2979": "\u2581\u0627\u0644\u0645\u0647\u0646\u062f\u0633", "2980": "\u0627\u062f\u0649", "2981": "\u2581\u0628\u063a\u062f\u0627\u062f", "2982": "\u0637\u0631\u0627\u0641", "2983": "\u2581\u0627\u0644\u0642\u0631\u0622\u0646", "2984": "\u2581\u062e\u0637\u0629", "2985": "\u062e\u064a\u0635", "2986": "\u0634\u0646\u0637\u0646", "2987": "\u0633\u0644\u0648\u0628", "2988": "\u2581\u0634\u0627\u0631\u0643", "2989": "\u2581\u0628\u0627\u0639\u062a", "2990": "\u0641\u064a\u062f", "2991": "\u0646\u062f\u0646", "2992": "\u0644\u064a\u0644\u0629", "2993": "\u0648\u0631\u062c", "2994": "\u2581\u0628\u062d\u064a\u062b", "2995": "\u2581\u062e\u0635", "2996": "\u2581\u0627\u0644\u0627\u062c\u062a\u0645\u0627\u0639\u064a", "2997": "\u2581\u0627\u0644\u062a\u0646\u0641\u064a\u0630\u064a", "2998": "\u2581\u0641\u0627\u0632", "2999": "\u0633\u0645\u062d", "3000": "\u2581\u0628\u062d\u0633\u0628", "3001": "\u0631\u064a\u062c", "3002": "\u2581\u0627\u0644\u063a\u0630", "3003": "\u062d\u064a\u0646", "3004": "\u2581\u0623\u0628\u0646\u0627\u0621", "3005": "\u2581\u0627\u0644\u0646\u0641\u0633", "3006": "\u062f\u064a\u0645\u0629", "3007": "\u2581\u0627\u0644\u0637\u0631\u0642", "3008": "\u0648\u0631\u0648\u0628\u064a\u0629", "3009": "\u2581\u0627\u0644\u0639\u0644\u0645\u064a\u0629", "3010": "\u2581\u0628\u064a\u0646\u0647\u0645", "3011": "\u062d\u0627\u0648\u0644", "3012": "\u0627\u0645\u0647", "3013": "\u2581\u0627\u0644\u062b\u0642\u0627\u0641\u0629", "3014": "\u2581\u0627\u0644\u0623\u0645\u064a\u0631\u0643\u064a", "3015": "\u2581\u0627\u0644\u0633\u0644\u0637\u0627\u062a", "3016": "\u2581\u0623\u0643\u062a", "3017": "\u2581\u062e\u0633", "3018": "\u2581\u0627\u0644\u0644\u063a\u0629", "3019": "\u2581\u0639\u062f\u062f\u0627", "3020": "\u0637\u0646\u064a\u0646", "3021": "\u2581\u064a\u062d\u0645\u0644", "3022": "\u2581\u0648\u0647\u0646\u0627\u0643", "3023": "\u2581\u062a\u0635\u0631\u064a\u062d", "3024": "\u2581\u0628\u0646\u0643", "3025": "\u2581\u0627\u0644\u0645\u0648\u0642\u0639", "3026": "\u0631\u064a\u0627", "3027": "\u2581\u062a\u0645\u0627\u0645\u0627", "3028": "\u0634\u064a\u062f", "3029": "\u2581\u0627\u0644\u0637\u0644\u0628", "3030": "\u2581\u064a\u0628\u0644\u063a", "3031": "\u2581\u0627\u0644\u0642\u0636\u0627\u0621", "3032": "\u2581\u0627\u0644\u0623\u0644\u0645", "3033": "\u2581\u064a\u0632\u064a\u062f", "3034": "\u2581\u062d\u064a\u0627\u0629", "3035": "\u2581\u0633\u0628\u0642", "3036": "\u0627\u0631\u0641", "3037": "\u2581\u0627\u0644\u0623\u0645\u0631\u064a\u0643\u064a", "3038": "\u062e\u0641\u0627\u0636", "3039": "\u2581\u0627\u0644\u0627\u0646\u062a\u062e", "3040": "\u2581\u0648\u0631\u0627\u0621", "3041": "\u2581\u0645\u0624\u062e\u0631\u0627", "3042": "\u2581\u0645\u0648\u0627\u062c\u0647\u0629", "3043": "\u2581\u0627\u0644\u0637\u0644\u0627\u0628", "3044": "\u0641\u0639\u062a", "3045": "\u064a\u0642\u0629", "3046": "\u2581\u0648\u0642\u0639", "3047": "\u2581\u0639\u064a\u062f", "3048": "\u0648\u0631\u0643", "3049": "\u0628\u0648", "3050": "\u2581\u0623\u0647\u062f\u0627\u0641", "3051": "\u2581\u0645\u0628\u0627\u0631\u064a\u0627\u062a", "3052": "\u2581\u0644\u0644\u0645\u0646", "3053": "\u0648\u0645\u064a\u0629", "3054": "\u2581\u0627\u0644\u0645\u0627\u0644\u064a", "3055": "\u2581\u0643\u0644\u064a\u0629", "3056": "\u2581\u062c\u0645", "3057": "\u2581\u0634\u0631\u0642", "3058": "\u2581\u0627\u0642", "3059": "\u2581\u0648\u0631\u0626\u064a\u0633", "3060": "\u0641\u064a\u0641", "3061": "\u0641\u0627\u062c", "3062": "\u0631\u062c\u0639", "3063": "\u2581\u0627\u0642\u062a\u0635\u0627\u062f", "3064": "\u2581\u062d\u0636\u0631", "3065": "\u2581\u0627\u0644\u0639\u0628", "3066": "\u2581\u0646\u0634\u0627\u0637", "3067": "\u2581\u0648\u0639\u062f\u062f", "3068": "\u2581\u0627\u0644\u0631\u0642", "3069": "\u2581\u064a\u0639\u0648\u062f", "3070": "\u2581\u0642\u0637", "3071": "\u2581\u0623\u0639\u0644\u0646\u062a", "3072": "\u2581\u0627\u0644\u0645\u0639\u0627", "3073": "\u2581\u0645\u0644\u0643", "3074": "\u0627\u0628\u062f", "3075": "\u062d\u0645", "3076": "\u2581\u0627\u0644\u0646\u0627\u0631", "3077": "\u2581\u0627\u0644\u0633\u064a\u0646", "3078": "\u0648\u062c\u0629", "3079": "\u2581\u062a\u0646\u062a", "3080": "\u2581\u0646\u0648\u0641\u0645\u0628\u0631", "3081": "\u2581\u0627\u0644\u0623\u0632\u0645\u0629", "3082": "\u2581\u0627\u0644\u0645\u0633\u064a", "3083": "\u0642\u0627\u0639\u062f", "3084": "\u2581\u064a\u0648\u0644\u064a\u0648", "3085": "\u2581\u0635\u0648\u062a", "3086": "\u2581\u062a\u062d\u062f\u064a\u062f", "3087": "\u2581\u0623\u0644\u0627", "3088": "\u2581\u0627\u0644\u0642\u0636\u0627\u064a\u0627", "3089": "\u2581\u0631\u0636\u064a", "3090": "\u2581\u0627\u0644\u0645\u0646\u0627\u0633\u0628\u0629", "3091": "\u0633\u0627\u0647\u0645", "3092": "\u0647\u0627\u062f\u0629", "3093": "\u258135", "3094": "\u2581\u0635\u0648\u0631", "3095": "\u2581\u0627\u0644\u0648\u062d\u062f\u0629", "3096": "\u2581\u0641\u0625", "3097": "\u0631\u0627\u062d\u0629", "3098": "\u0645\u0627\u0639\u064a\u0644", "3099": "\u2581\u0627\u0644\u0627\u062f\u0627\u0631\u0629", "3100": "\u2581\u062c\u0648\u0646", "3101": "\u2581\u062c\u0645\u0627\u0644", "3102": "\u2581\u0627\u0644\u062e\u0627\u0645\u0633\u0629", "3103": "\u0646\u064a\u0641", "3104": "\u2581\u064a\u062c\u0639\u0644", "3105": "\u062a\u064a\u0628", "3106": "\u0641\u0627\u0644", "3107": "\u0644\u064a\u0628", "3108": "\u2581\u0645\u064a\u0644", "3109": "\u2581\u062c\u0645\u0647", "3110": "\u2581\u0627\u0644\u0627\u062a\u0635\u0627\u0644\u0627\u062a", "3111": "\u0631\u0648\u0633", "3112": "\u062e\u0635\u0648\u0635", "3113": "\u2581\u0627\u0644\u062c\u062f", "3114": "\u2581\u0627\u0644\u0641\u0642", "3115": "\u2581\u0627\u0644\u0623\u064a\u0627\u0645", "3116": "\u2581\u0645\u0631\u0636", "3117": "\u0646\u0627\u0633\u0628\u0629", "3118": "\u0627\u0631\u0636", "3119": "\u2581\u0645\u0639\u0627\u0644\u064a", "3120": "\u0633\u062f", "3121": "\u2581\u0627\u0644\u0645\u0632\u064a\u062f", "3122": "\u2581\u0627\u0644\u0642\u0648\u0649", "3123": "\u2581\u0627\u0644\u062e\u062f\u0645\u0629", "3124": "\u2581\u0641\u064a\u0644\u0645", "3125": "\u2581\u062a\u0636\u0645", "3126": "\u2581194", "3127": "\u064a\u0633\u0649", "3128": "\u2581\u062a\u063a\u064a\u064a\u0631", "3129": "\u2581\u0623\u0646\u0647\u0645", "3130": "\u0634\u0631\u0648\u0639", "3131": "\u2581\u0633\u062a\u0643\u0648\u0646", "3132": "\u063a\u0628\u0629", "3133": "\u2581\u062d\u0641\u0644", "3134": "\u2581\u0627\u0644\u062a\u062d\u0642\u064a\u0642", "3135": "\u2581\u062d\u0645\u0644", "3136": "\u2581\u0625\u062e", "3137": "\u2581\u0634\u064a\u0626\u0627", "3138": "\u2581\u0643\u064a\u0644", "3139": "\u2581\u0648\u0628\u0644\u063a", "3140": "\u2581\u0627\u0644\u0625\u0633\u0644\u0627\u0645\u064a", "3141": "\u2581\u0623\u0639\u0644\u0649", "3142": "\u0648\u062a\u0631", "3143": "\u2581\u0639\u0627\u062f", "3144": "on", "3145": "\u2581\u062a\u062c\u0627\u0647", "3146": "\u2581\u0627\u0644\u062d\u0628", "3147": "\u2581\u0645\u0639\u0647\u0627", "3148": "\u2581\u0627\u0644\u0625\u0633\u0631\u0627\u0626\u064a\u0644\u064a", "3149": "\u0646\u0627\u0641", "3150": "\u2581\u0646\u0638\u0631\u0627", "3151": "\u2581\u0645\u0641\u062a", "3152": "\u062d\u0631\u064a\u0631", "3153": "\u2581\u0627\u0644\u0633\u0648\u0631\u064a\u0629", "3154": "\u2581\u0645\u062d\u062a", "3155": "\u2581\u0627\u0644\u0627\u062b\u0646\u064a\u0646", "3156": "\u2581\u0631\u0628\u0645\u0627", "3157": "\u063a\u0627\u0646", "3158": "\u0639\u0644\u0642\u0629", "3159": "\u062d\u062f\u064a\u062f", "3160": "\u2581\u0645\u0643\u0629", "3161": "\u0641\u062f", "3162": "\u2581\u0643\u0646", "3163": "\u0627\u0639\u064a", "3164": "\u2581\u0644\u0644\u0628", "3165": "\u2581\u0644\u062f\u064a\u0647\u0627", "3166": "\u2581\u062d\u0642\u0642", "3167": "\u0631\u064a\u062d\u0627\u062a", "3168": "\u2581\u0627\u0644\u0628\u0646\u0648\u0643", "3169": "\u2581\u0627\u0644\u0623\u063a", "3170": "\u2581\u063a\u0627\u0644", "3171": "\u2581\u0627\u0644\u0645\u0639\u0627\u0631\u0636\u0629", "3172": "\u0631\u0628\u0627\u062d", "3173": "\u2581\u0641\u0625\u0646\u0647", "3174": "\u2581\u0627\u0644\u0631\u0633\u0645\u064a\u0629", "3175": "\u0633\u0627\u062f", "3176": "\u2581\u0642\u0644\u062a", "3177": "\u0630\u062c", "3178": "\u2581\u0644\u0644\u0635", "3179": "\u0627\u0628\u0627", "3180": "\u2581\u0646\u062f", "3181": "\u2581\u0642\u064a\u0645", "3182": "\u2581\u0627\u0644\u062b\u0648\u0631\u0629", "3183": "\u2581\u0627\u0644\u0631\u0626\u064a\u0633\u064a\u0629", "3184": "\u062a\u0647\u064a", "3185": "\u2581\u0627\u0644\u0635\u062d\u064a", "3186": "\u2581\u0627\u0644\u062f\u0639\u0645", "3187": "\u2581\u0639\u0646\u0627\u0635\u0631", "3188": "\u2581\u062a\u0647", "3189": "\u0628\u0644\u0648\u0645\u0627", "3190": "\u0635\u062f\u0642", "3191": "\u0638\u0644", "3192": "\u064a\u0644\u0627\u062a", "3193": "\u2581\u0646\u0639\u0645", "3194": "\u2581\u0627\u0644\u0645\u0643\u0631", "3195": "\u2581\u0623\u0631\u0628\u0639\u0629", "3196": "\u2581\u0627\u0644\u0623\u0645\u0645", "3197": "\u2581\u0632\u064a\u0627\u0631\u0629", "3198": "\u2581\u0648\u0627\u0644\u0644", "3199": "\u2581195", "3200": "\u0643\u064a\u0645", "3201": "\u2581\u0627\u0644\u0645\u0639\u0631\u0636", "3202": "\u2581\u0627\u0644\u0645\u0648\u0627\u062f", "3203": "\u2581\u0627\u0644\u0646\u0647\u0627\u0626\u064a", "3204": "\u0627\u0626\u0645", "3205": "\u062e\u0645", "3206": "\u2581\u0648\u0631\u062f", "3207": "\u2581\u0648\u0645\u0633", "3208": "\u2581\u0648\u0627\u0644\u0645\u0624", "3209": "\u2581\u0627\u0644\u062b\u0644\u0627\u062b\u0627\u0621", "3210": "\u2581\u0623\u0635\u0628\u062d\u062a", "3211": "\u2581\u0639\u0627", "3212": "\u0648\u0644\u0648\u062c\u064a\u0627", "3213": "\u2581\u0637\u0631\u062d", "3214": "\u2581\u0623\u0646\u062a", "3215": "\u2581\u0627\u0644\u0628\u064a\u0626\u0629", "3216": "\u0631\u0634", "3217": "\u0627\u062f\u0642", "3218": "\u2581\u0644\u0646\u062f\u0646", "3219": "\u0646\u062a\u0631", "3220": "\u2581\u0633\u064a\u0627\u0631\u0629", "3221": "\u2581\u0632\u0627\u064a\u062f", "3222": "\u0641\u0627\u0648\u0636\u0627\u062a", "3223": "\u062d\u0647", "3224": "\u2581\u062f\u062e\u0648\u0644", "3225": "\u0642\u064a\u0642\u064a\u0629", "3226": "\u2581\u0643\u0627\u0645\u0644", "3227": "\u2581\u0648\u062c\u062f", "3228": "\u2581\u0633\u0628\u0628", "3229": "\u2581\u0623\u0645\u0631\u064a\u0643\u064a", "3230": "\u2581\u0627\u0644\u0627\u062d", "3231": "\u062d\u0642\u0642", "3232": "\u2581\u0645\u0648\u0633\u0645", "3233": "\u062d\u0642\u0627", "3234": "\u2581\u062d\u0631\u0635", "3235": "\u2581\u062c\u0646\u064a\u0647", "3236": "\u2581\u0645\u0634\u0643\u0644\u0629", "3237": "\u062e\u0637\u0637", "3238": "\u0627\u0631\u0627", "3239": "\u0627\u0645\u0646\u0629", "3240": "\u2581\u0648\u0625\u0646\u0645\u0627", "3241": "\u2581\u0628\u0635\u0648\u0631\u0629", "3242": "\u2581\u0623\u062f\u0627\u0621", "3243": "\u062d\u0648\u0644", "3244": "\u2581\u0627\u0644\u0634\u064a", "3245": "\u2581\u0627\u0644\u0623\u0647\u0644\u064a", "3246": "\u0634\u0631\u0627\u062a", "3247": "\u2581\u062d\u0633\u0627\u0628", "3248": "\u2581\u0639\u0644\u0627\u0642\u0629", "3249": "\u2581\u0648\u0627\u0634\u0646\u0637\u0646", "3250": "\u0643\u0644\u0641\u0629", "3251": "\u0643\u0648\u0645\u0629", "3252": "\u2581\u0645\u0645\u0646", "3253": "\u2581\u0645\u0633\u0644\u0645", "3254": "\u2581\u0645\u0639\u0647\u0645", "3255": "\u0648\u0627\u0639\u062f", "3256": "\u2581\u0645\u062e\u062a", "3257": "\u2581\u0645\u064a", "3258": "\u2581\u0643\u0644\u0627", "3259": "\u0639\u0648\u0646", "3260": "\u0648\u062c\u0648\u062f\u0629", "3261": "\u0634\u0627\u0641", "3262": "\u2581\u062a\u0645\u062b\u0644", "3263": "\u0648\u0636\u0627\u0639", "3264": "\u2581\u0623\u0649", "3265": "\u2581\u0627\u0644\u0645\u0631\u0627", "3266": "\u2581\u0645\u0646\u0635\u0648\u0631", "3267": "\u2581\u0645\u062c\u062a\u0645\u0639", "3268": "\u2581\u0623\u062e\u0630", "3269": "\u2581\u0644\u062a\u062d\u0642\u064a\u0642", "3270": "\u2581\u0623\u0628\u062f", "3271": "\u062f\u062f\u0627", "3272": "\u0648\u0627\u0631\u0639", "3273": "\u2581\u0627\u0644\u0645\u0646\u0634", "3274": "\u2581\u062c\u0627\u0646\u0628\u0647", "3275": "\u2581\u0644\u0637", "3276": "\u2581\u0645\u0639\u0631\u0636", "3277": "\u25812005", "3278": "\u2581\u0627\u0644\u0631\u064a", "3279": "\u2581\u0648\u0631\u0628", "3280": "\u2581\u0627\u0644\u0635\u064a\u0646", "3281": "\u0627\u0631\u062a\u0641\u0627\u0639", "3282": "\u2581\u0627\u0644\u062d\u0645\u062f", "3283": "\u2581\u0623\u0635\u0644", "3284": "ad", "3285": "\u0648\u0642\u0627\u062a", "3286": "\u2581\u0639\u0635", "3287": "\u2581\u0628\u062f\u0648\u0646", "3288": "\u2581\u064a\u0639\u064a\u0634", "3289": "\u062d\u0627\u0621", "3290": "\u2581\u062a\u062c\u0627\u0648\u0632", "3291": "\u2581\u0627\u0644\u0639\u0631\u0627\u0642\u064a\u0629", "3292": "\u2581\u062d\u0636\u0648\u0631", "3293": "\u0642\u0644\u0627\u0644", "3294": "\u2581\u0623\u0643\u062a\u0648\u0628\u0631", "3295": "\u2581\u0648\u0643\u0627\u0644\u0629", "3296": "\u2581\u062a\u0631\u0627", "3297": "\u2581\u0623\u0647", "3298": "\u2581\u0627\u0644\u0623\u0645\u064a\u0646", "3299": "\u2581\u0627\u0644\u0623\u0644", "3300": "\u0636\u0627\u0639", "3301": "\u2581\u0627\u0633\u062a\u0645\u0631\u0627\u0631", "3302": "\u2581\u0627\u0633\u062a\u0639\u062f\u0627\u062f", "3303": "\u2581\u0627\u0644\u0645\u0643", "3304": "\u0641\u0639\u0629", "3305": "\u2581\u0627\u0644\u0631\u0627\u0628\u0639\u0629", "3306": "\u2581\u0627\u0632", "3307": "ah", "3308": "\u2581\u0627\u0644\u0623\u0631\u0628\u0639", "3309": "\u2581\u0627\u0644\u0627\u0645\u0631", "3310": "\u0633\u0647", "3311": "\u0644\u0628\u0629", "3312": "\u0642\u062a\u0647\u0627", "3313": "\u2581\u0627\u0644\u0635\u0644\u0627\u0629", "3314": "\u2581\u062c\u0645\u064a\u0639\u0627", "3315": "\u0648\u0627\u0631\u062f", "3316": "\u2581\u0627\u0644\u0645\u0643\u0627\u0646", "3317": "\u2581\u0627\u0644\u0645\u0627\u062f\u0629", "3318": "\u062d\u0645\u0644", "3319": "\u2581\u0628\u062f\u0644\u0627", "3320": "\u2581\u0645\u0648\u0633\u0649", "3321": "\u2581\u0627\u0644\u0641\u0631\u0646\u0633\u064a\u0629", "3322": "\u0633\u0637\u0633", "3323": "\u0641\u064a\u0647", "3324": "\u2581\u0641\u0631\u0635", "3325": "\u2581\u0627\u0644\u0628\u0644\u062f\u064a\u0646", "3326": "\u2581\u0645\u062d\u0627\u0648\u0644\u0629", "3327": "\u2581\u0627\u0644\u0641\u0631\u0642", "3328": "\u25812004", "3329": "\u2581\u0627\u0644\u0639\u0644\u0627\u062c", "3330": "\u2581\u0641\u0647\u0645", "3331": "\u0648\u0644\u064a\u0646", "3332": "\u0632\u0627\u0628", "3333": "\u2581\u0647\u0647", "3334": "\u2581\u0645\u0647\u0645", "3335": "\u2581\u0648\u0627\u0644\u0639\u0645\u0644", "3336": "\u0627\u0646\u0633", "3337": "\u0648\u0627\u0641\u0642", "3338": "\u2581\u0639\u0627\u0644\u064a\u0629", "3339": "\u2581\u0623\u0648\u0631\u0648\u0628\u0627", "3340": "\u2581\u0627\u0644\u0645\u0647\u0631\u062c\u0627\u0646", "3341": "\u2581\u0623\u0641\u0631\u0627\u062f", "3342": "\u062f\u064a\u0642", "3343": "\u2581\u0645\u062a\u0631", "3344": "\u062c\u0631\u064a", "3345": "\u2581\u0627\u0644\u0625\u0644\u0643\u062a\u0631", "3346": "\u2581\u0627\u0644\u0627\u0645\u0646", "3347": "\u2581\u0641\u0645\u0646", "3348": "\u062c\u064a\u0639", "3349": "\u0637\u0644\u0627\u0639", "3350": "\u2581\u0628\u0648\u0627\u0633", "3351": "\u2581\u0628\u0646\u064a", "3352": "as", "3353": "\u2581\u0627\u0644\u0645\u062f\u0631\u0633\u0629", "3354": "\u2581\u0641\u0631\u0636", "3355": "\u0627\u0644\u064a\u0627", "3356": "\u064a\u0645\u064a\u0646", "3357": "\u2581\u0627\u0644\u0634\u0648\u0637", "3358": "\u062e\u064a", "3359": "\u0645\u0646\u0629", "3360": "\u2581\u0648\u0627\u0644\u0647", "3361": "\u2581\u0648\u0627\u0644\u0645\u0633", "3362": "\u2581\u0627\u0644\u0631\u0643", "3363": "\u0644\u064a\u0642", "3364": "\u2581\u0625\u0646\u0634\u0627\u0621", "3365": "\u0627\u0631\u0647", "3366": "\u0637\u0627\u0646", "3367": "\u2581\u0627\u0644\u0631\u0633\u0645\u064a", "3368": "\u2581\u0645\u062a\u0646", "3369": "\u2581\u0648\u0644\u0647", "3370": "\u2581\u062d\u062f\u0648\u062f", "3371": "\u2581\u0645\u0634\u0627\u0631\u0643\u0629", "3372": "\u2581\u0648\u064a\u0633\u062a", "3373": "\u2581\u0627\u0644\u0639\u0647\u062f", "3374": "\u2581\u0628\u062f\u0621", "3375": "\u2581\u0627\u0644\u0646\u062a", "3376": "\u2581\u0622\u0646", "3377": "\u2581\u0625\u062d", "3378": "\u2581\u0627\u0644\u062c\u0632\u064a\u0631\u0629", "3379": "\u2581\u0627\u0644\u0648\u0631", "3380": "\u2581\u0627\u0644\u0645\u0633\u0631\u062d", "3381": "\u2581\u064a\u062d\u062a\u0627\u062c", "3382": "\u0648\u064a\u0636", "3383": "\u0634\u0641\u062a", "3384": "\u2581\u0627\u0644\u062f\u0642\u064a\u0642\u0629", "3385": "\u2581\u0627\u0644\u0645\u0639\u062f", "3386": "\u2581\u0627\u0644\u0648\u0635\u0648\u0644", "3387": "\u062d\u0635\u0627\u0621", "3388": "\u258160", "3389": "\u2581\u0631\u0648\u0633", "3390": "\u2581\u0627\u0644\u062d\u0636", "3391": "\u2581\u0645\u0633\u062a\u0634\u0641\u0649", "3392": "\u2581\u0646\u062c\u0627\u062d", "3393": "\u0648\u0644\u064a\u0629", "3394": "\u2581\u0648\u0627\u0644\u0645\u0633\u062a", "3395": "\u2581\u0627\u0644\u0646\u0642\u062f", "3396": "\u0631\u0627\u0642\u0628\u0629", "3397": "\u0628\u064a\u0646", "3398": "\u062b\u0645\u0631\u064a\u0646", "3399": "\u2581\u064a\u0633\u062a\u0637\u064a\u0639", "3400": "\u2581\u0627\u0644\u0645\u0633\u0644\u062d\u0629", "3401": "\u2581\u0648\u0635\u0648\u0644", "3402": "\u2581\u0634\u0628\u0627\u0628", "3403": "\u2581\u0648\u0645\u0646\u0647\u0627", "3404": "\u2581\u0648\u062a\u062f", "3405": "\u2581\u0645\u0647\u0645\u0627", "3406": "\u2581\u0627\u0633\u0631\u0627\u0626\u064a\u0644", "3407": "\u2581\u062c\u0627\u0621\u062a", "3408": "\u0627\u0646\u0648\u064a\u0629", "3409": "\u2581\u0631\u062c", "3410": "\u2581\u0627\u0644\u0641\u0639", "3411": "\u2581\u063a\u064a\u0627\u0628", "3412": "\u2581\u0642\u064a\u0627\u0645", "3413": "\u0645\u0646\u064a", "3414": "\u2581\u0627\u0644\u0639\u0644\u0627\u0642\u0629", "3415": "\u2581\u0645\u062d\u0627\u0641\u0638", "3416": "\u2581\u0627\u0644\u0634\u062e\u0635\u064a\u0629", "3417": "\u2581\u0627\u0644\u0623\u0632", "3418": "\u2581\u0628\u0647\u0645", "3419": "\u0627\u0641\u0631", "3420": "\u2581\u0631\u0633\u0627\u0644\u0629", "3421": "\u2581\u0641\u0643\u0631\u0629", "3422": "\u2581\u0627\u0644\u0645\u0634\u0643\u0644\u0629", "3423": "\u0635\u062f\u0631", "3424": "\u2581\u0628\u0631\u0626\u0627\u0633\u0629", "3425": "\u2581\u0627\u0644\u0642\u0627\u062f\u0645\u0629", "3426": "\u2581\u0627\u0644\u062c\u0648\u0644\u0629", "3427": "\u2581\u0628\u0644\u0627\u062f", "3428": "\u0631\u062a\u0647\u0627", "3429": "\u0643\u0630\u0627", "3430": "\u2581\u0627\u0644\u062a\u0648", "3431": "\u0646\u0627\u0648\u0644", "3432": "\u0627\u0628\u0644\u0629", "3433": "\u2581\u0627\u0644\u0644\u0648\u0627\u0621", "3434": "\u2581\u0641\u0631\u0642", "3435": "\u2581\u0645\u0644\u0639\u0628", "3436": "\u0627\u0631\u064a\u0631", "3437": "\u2581\u0627\u0628\u0648", "3438": "\u0627\u062a\u062d\u0627\u062f", "3439": "\u2581\u062a\u0634\u0647\u062f", "3440": "\u2581\u0627\u0644\u062e\u064a\u0631", "3441": "\u064a\u0645\u0629", "3442": "\u2581\u062d\u0635", "3443": "\u2581\u0627\u0644\u0644\u0627\u0632\u0645\u0629", "3444": "\u2581\u0627\u0644\u0645\u0644\u0627", "3445": "\u062f\u0631\u0627\u062a", "3446": "\u062c\u0627\u0632\u0627\u062a", "3447": "\u2581\u062c\u0627\u0626\u0632\u0629", "3448": "\u2581\u0648\u0644\u0627\u064a\u0629", "3449": "\u0642\u064a\u064a\u0645", "3450": "\u2581\u0635\u0646\u0639", "3451": "\u0636\u0631\u0648\u0631\u0629", "3452": "\u2581\u0635\u0644\u0627\u062d", "3453": "\u2581\u064a\u0642\u0639", "3454": "\u0627\u062a\u0641", "3455": "\u2581\u0648\u0645\u062d", "3456": "\u2581\u0627\u0644\u0645\u0648\u0638\u0641", "3457": "or", "3458": "\u2581\u0627\u0644\u0646\u0635", "3459": "\u2581\u064a\u0648", "3460": "\u0632\u0639", "3461": "\u0631\u064a\u0631", "3462": "\u2581\u0627\u0644\u0642\u0648\u0644", "3463": "\u0646\u062f\u0642", "3464": "\u2581\u0627\u0644\u0645\u0636", "3465": "\u2581\u0643\u0627", "3466": "\u2581\u0627\u0644\u0645\u0635\u0627\u062f\u0631", "3467": "\u062c\u0647\u0627\u062a", "3468": "\u064a\u0627\u0646\u0629", "3469": "\u2581\u0627\u0644\u0642\u064a\u0627\u062f\u0629", "3470": "\u2581\u0627\u0644\u0635\u0646\u0627\u0639\u064a\u0629", "3471": "\u2581\u0627\u0644\u0646\u0635\u0631", "3472": "\u2581\u0641\u0639\u0627\u0644\u064a\u0627\u062a", "3473": "\u062d\u062f\u064a\u062b", "3474": "\u2581\u0627\u0644\u0648\u0644", "3475": "\u2581\u0627\u0644\u0641\u0646\u0627\u0646", "3476": "\u2581\u0623\u0628\u0631\u0632", "3477": "\u0644\u064a\u0647", "3478": "\u2581\u0646\u0648", "3479": "\u2581\u0627\u0644\u0628\u0631\u0644\u0645\u0627\u0646", "3480": "\u2581\u0627\u0644\u0645\u0631\u0634\u062d", "3481": "\u0642\u0627\u062f", "3482": "\u2581\u0628\u0639\u062f\u0647\u0627", "3483": "\u0643\u0627\u062a\u0628", "3484": "\u2581\u0627\u0644\u062c\u0647\u0648\u062f", "3485": "\u0643\u0645\u0627\u0644", "3486": "\u062e\u064a\u0631", "3487": "\u2581\u062e\u0645\u0633", "3488": "\u2581\u0648\u0645\u062d\u0645\u062f", "3489": "\u2581\u0648\u0627\u062d\u062a", "3490": "\u0633\u0628\u0642", "3491": "\u2581\u0644\u0627\u0641\u062a\u0627", "3492": "\u2581\u0639\u0627\u0645\u0629", "3493": "\u0647\u0644\u0643", "3494": "\u2581\u0645\u0646\u062d", "3495": "\u2581\u0628\u0627\u0644\u0645\u0646", "3496": "\u2581\u0627\u0644\u0631\u0627\u0626", "3497": "\u2581\u0627\u0644\u0628\u0631\u0627\u0645\u062c", "3498": "\u2581\u062a\u0627", "3499": "\u2581\u0627\u0644\u0641\u064a\u0644\u0645", "3500": "\u2581\u0645\u0637\u0644", "3501": "\u2581\u062d\u062f\u062b\u0646\u0627", "3502": "\u2581\u0628\u064a\u0646\u0647\u0627", "3503": "\u2581\u062d\u0645\u0627\u0633", "3504": "\u2581\u0627\u0644\u0639\u0627\u0645\u0644\u064a\u0646", "3505": "\u2581\u0627\u0644\u0639\u0644\u0645\u064a", "3506": "\u2581\u0627\u0639\u062a\u0628\u0627\u0631", "3507": "\u2581\u0627\u0644\u0645\u0626\u0629", "3508": "\u2581\u0648\u0644\u0646", "3509": "\u2581\u0645\u0648\u0639\u062f", "3510": "\u2581\u0627\u0647\u062a\u0645\u0627\u0645", "3511": "\u2581\u0628\u0627\u0639\u062a\u0628\u0627\u0631", "3512": "\u2581\u0645\u0643\u0627\u0641", "3513": "\u2581\u064a\u0628\u062f\u0648", "3514": "\u2581\u0635\u0627\u0631", "3515": "\u0627\u0646\u0639", "3516": "\u2581\u0627\u0636", "3517": "\u2581\u0645\u0639\u0644\u0648\u0645\u0627\u062a", "3518": "\u2581\u0648\u0645\u0633\u062a", "3519": "\u2581\u0644\u0645\u0648\u0627", "3520": "\u2581\u0627\u0644\u0627\u0645\u064a\u0631\u0643\u064a\u0629", "3521": "\u2581\u062a\u0639\u0631\u0641", "3522": "\u0631\u062c\u0627\u0644", "3523": "\u2581\u0627\u0644\u062e\u0628\u0631", "3524": "\u0638\u0645\u0627\u062a", "3525": "\u2581\u0628\u0627\u0644\u0644", "3526": "\u2581\u0627\u0644\u0642\u0627\u0639\u062f\u0629", "3527": "\u2581\u0627\u0644\u0623\u0639\u0644\u0649", "3528": "\u2581\u0628\u0648\u0644", "3529": "\u2581\u0627\u0644\u0628\u0646\u0627\u0621", "3530": "\u2581\u0627\u0644\u0623\u0631\u062f", "3531": "\u2581\u0627\u0644\u0639\u0633\u0643\u0631\u064a", "3532": "\u2581\u0627\u0644\u0623\u0643\u062b\u0631", "3533": "\u0646\u064a\u0627\u062a", "3534": "\u2581\u0643\u0634\u0641", "3535": "\u0642\u064a\u0642\u064a", "3536": "\u2581\u0627\u0644\u0642\u0627\u062f\u0645", "3537": "\u0645\u0631\u0629", "3538": "\u2581142", "3539": "\u2581\u0627\u0644\u0623\u0645\u0629", "3540": "\u0643\u064a\u0631", "3541": "\u2581\u0648\u0623\u0646\u0627", "3542": "\u2581\u0642\u0637\u0631", "3543": "\u2581\u0628\u0645\u0646\u0637\u0642\u0629", "3544": "\u2581\u0627\u0644\u0627\u062d\u062a\u0644\u0627\u0644", "3545": "\u2581\u0645\u062f\u0631\u0633\u0629", "3546": "\u0627\u0626\u0647\u0627", "3547": "\u2581\u0627\u0644\u0625\u0645\u0627\u0645", "3548": "\u2581\u062c\u0647\u0627\u0632", "3549": "\u2581\u0627\u0644\u062d\u0641\u0644", "3550": "\u2581\u0627\u0644\u0645\u0641\u062a", "3551": "\u2581\u0648\u0643\u064a\u0644", "3552": "\u2581\u063a\u0631\u0628", "3553": "\u2581\u0627\u0644\u0645\u0634\u062a\u0631\u0643", "3554": "\u0639\u062f\u062f\u0629", "3555": "\u2581\u064a\u0624\u062f\u064a", "3556": "\u2581\u062d\u0627\u062c\u0629", "3557": "\u2581\u0644\u0623\u0646\u0647\u0627", "3558": "\u0645\u0645", "3559": "\u0648\u0627\u062f", "3560": "\u2581\u0627\u0644\u0637\u0641\u0644", "3561": "\u2581\u0648\u064a\u0642\u0648\u0644", "3562": "\u2581\u0627\u0644\u0625\u062c", "3563": "\u2581\u0628\u0645\u0648", "3564": "\u258132", "3565": "\u2581\u0648\u0628\u0631", "3566": "\u2581\u062a\u062f\u062e\u0644", "3567": "\u2581\u0627\u0644\u0643\u0644", "3568": "\u2581\u062a\u0639\u0644\u064a\u0645", "3569": "\u2581\u0639\u0646\u0648\u0627\u0646", "3570": "\u2581\u0634\u062e\u0635\u064a\u0629", "3571": "\u258145", "3572": "\u2581\u0645\u0645\u062b\u0644", "3573": "\u2581\u0627\u0644\u0634\u0639\u0628\u064a\u0629", "3574": "\u2581\u0642\u0631\u064a\u0629", "3575": "\u2581\u0642\u0648\u064a\u0629", "3576": "\u062d\u064a\u0627\u0646\u0627", "3577": "\u0631\u064a\u0628\u064a\u0629", "3578": "\u2581\u0634\u0628\u0643\u0629", "3579": "\u2581\u0628\u0623\u0633", "3580": "\u2581\u0627\u0644\u0628\u0631\u064a\u0637\u0627\u0646\u064a\u0629", "3581": "\u2581\u0627\u0644\u0623\u0648\u0631\u0648\u0628\u064a", "3582": "\u0648\u0627\u0626\u0632", "3583": "\u2581\u0648\u0642\u0641", "3584": "\u0637\u0641\u0649", "3585": "\u0644\u0641\u0632\u064a\u0648\u0646", "3586": "\u2581\u062e\u0644\u064a\u0641\u0629", "3587": "\u258133", "3588": "\u0631\u0647\u0627\u0628", "3589": "en", "3590": "\u062c\u0646\u0628\u064a\u0629", "3591": "\u2581\u0627\u0644\u0627\u0634", "3592": "\u2581\u0642\u064a\u0627\u062f\u0629", "3593": "\u0627\u0626\u0631\u0627\u062a", "3594": "\u2581\u0635\u062f\u0631", "3595": "\u0634\u0643\u0644", "3596": "\u0648\u0633\u0639", "3597": "\u2581\u0627\u0644\u0625\u062e\u0648\u0627\u0646", "3598": "\u2581\u0644\u0645\u0627\u0630\u0627", "3599": "\u2581\u0627\u0644\u062c\u0646\u0648\u0628\u064a\u0629", "3600": "\u2581\u0634\u0627\u0631", "3601": "\u2581\u062a\u0623\u062a\u064a", "3602": "\u0639\u0628\u064a\u0631", "3603": "\u0641\u0648", "3604": "\u2581\u0627\u0644\u0631\u064a\u0627\u0636\u064a", "3605": "\u2581\u0645\u0646\u0635\u0628", "3606": "\u2581\u0644\u0643\u064a", "3607": "\u2581\u0641\u0643", "3608": "\u2581\u0627\u0644\u0641\u0627\u0626", "3609": "\u2581\u062a\u0623\u062b\u064a\u0631", "3610": "\u2581\u0642\u0631\u0628", "3611": "\u2581\u0633\u0643\u0627\u0646\u0647\u0627", "3612": "\u2581\u0633\u064a\u0627\u0633\u064a\u0629", "3613": "\u2581\u0648\u0623\u0639", "3614": "\u2581\u0627\u0644\u0627\u0641", "3615": "\u0642\u062a\u0631\u062d", "3616": "\u2581\u0644\u0644\u0645\u0631", "3617": "\u2581\u0648\u0627\u0644\u0645\u062f", "3618": "\u2581\u0633\u0644\u0645\u0627\u0646", "3619": "\u2581\u0648\u0635\u0644\u062a", "3620": "\u0627\u0645\u064a\u0646", "3621": "\u2581\u0648\u0627\u0644\u0627\u0646", "3622": "\u2581\u0627\u0644\u0631\u0626\u064a\u0633\u064a", "3623": "\u2581\u0628\u0627\u0644\u062a\u0639\u0627\u0648\u0646", "3624": "\u2581\u0628\u0627\u0644\u0637", "3625": "\u064a\u0633\u064a", "3626": "\u2581\u064a\u0631\u062a", "3627": "\u064a\u0633\u0629", "3628": "\u2581\u0628\u062d\u0642", "3629": "\u2581\u0623\u062f\u0649", "3630": "\u2581\u0623\u0645\u064a\u0646", "3631": "\u0648\u064a\u0647", "3632": "\u2581\u0644\u062e", "3633": "\u2581\u0625\u0637\u0644\u0627\u0642", "3634": "\u2581\u0642\u0627\u062f", "3635": "\u2581\u0627\u0644\u0628\u062f\u0627", "3636": "\u2581\u062a\u0639\u062f\u0627\u062f", "3637": "\u2581\u0642\u0627\u0626\u062f", "3638": "\u2581\u0648\u0645\u0624", "3639": "\u2581\u0628\u0623\u0646\u0647\u0627", "3640": "\u2581\u0647\u0627\u0645", "3641": "\u0637\u0627\u0644\u0628\u0629", "3642": "\u2581\u0627\u0644\u0634\u0645\u0627\u0644\u064a\u0629", "3643": "\u2581\u0628\u0648\u0627\u0633\u0637\u0629", "3644": "\u0628\u0631\u0627\u0621", "3645": "\u2581\u0627\u0644\u062a\u0627\u0633", "3646": "\u2581\u0628\u0644\u062f\u064a\u0629", "3647": "\u0643\u0627\u062f\u064a\u0645", "3648": "\u0637\u0628\u0627\u0621", "3649": "\u2581\u062a\u062c\u0645\u0639", "3650": "\u2581\u0645\u0648\u0636\u062d\u0627", "3651": "\u2581\u0628\u0631\u0648", "3652": "\u0633\u0643", "3653": "\u2581\u0645\u0627\u0644\u0643", "3654": "\u2581\u0628\u0646\u0641\u0633", "3655": "\u0636\u0628", "3656": "\u2581\u0627\u0644\u0633\u064a\u0627\u0633\u0629", "3657": "\u0645\u0628\u064a", "3658": "\u2581\u0627\u0633\u062a\u063a", "3659": "\u2581\u0627\u0644\u062f\u064a\u0645\u0648\u0642", "3660": "\u0630\u064a\u0629", "3661": "\u2581\u0627\u0644\u0643\u0644\u0627\u0645", "3662": "\u2581\u0625\u0646\u062a\u0627\u062c", "3663": "\u0639\u0627\u0645", "3664": "\u064a\u062a\u064a", "3665": "\u2581\u0627\u0644\u0627\u0628\u062a", "3666": "\u0644\u0627\u062d\u0638", "3667": "\u2581\u0633\u0644\u0645", "3668": "\u2581\u0647\u0646", "3669": "\u0648\u0646\u0647\u0627", "3670": "\u2581\u0627\u0644\u062b\u0627\u0645\u0646\u0629", "3671": "\u2581\u0647\u0627", "3672": "\u0646\u062a\u064a\u0646", "3673": "\u0648\u0631\u0649", "3674": "\u2581\u064a\u0637", "3675": "\u2581\u0648\u0628\u0639\u0636", "3676": "\u0641\u0646", "3677": "\u2581\u0627\u0644\u0648\u0627\u062d\u062f", "3678": "\u0644\u0644", "3679": "\u0648\u0631\u0647\u0627", "3680": "\u2581com", "3681": "\u2581\u0628\u062d\u0636\u0648\u0631", "3682": "\u2581\u064a\u0648\u0645\u064a\u0627", "3683": "\u2581\u0627\u0644\u0637\u0627\u0626\u0641", "3684": "\u2581\u062d\u0645\u0627\u064a\u0629", "3685": "\u2581\u0644\u0639\u0627\u0645", "3686": "\u2581\u062a\u0628\u0644\u063a", "3687": "\u2581al", "3688": "\u0635\u064a\u062f", "3689": "\u2581\u0627\u0644\u0623\u0633\u0648\u0627\u0642", "3690": "\u2581\u0627\u0644\u0645\u0635\u062f\u0631", "3691": "\u2581\u0627\u0644\u0627\u0647\u062a\u0645\u0627\u0645", "3692": "\u0627\u0644\u062b", "3693": "\u2581\u0644\u0644\u0628\u0646", "3694": "\u2581\u0627\u0644\u062d\u062f\u064a\u062b\u0629", "3695": "\u2581\u062a\u0648\u0632\u064a\u0639", "3696": "\u2581\u0648\u0627\u0634\u0627\u0631", "3697": "\u0626\u062a", "3698": "\u2581\u062f\u0627\u0626\u0631\u0629", "3699": "\u2581\u0648\u062a\u0642", "3700": "\u2581\u0648\u0644\u0641\u062a", "3701": "\u2581\u062c\u0627\u0645", "3702": "\u2581\u0627\u0644\u0639\u0646\u0632\u064a", "3703": "\u2581\u0627\u0644\u0645\u0631\u0643\u0632\u064a", "3704": "\u062d\u0627\u0642", "3705": "\u0626\u064a\u0646", "3706": "\u2581\u0639\u0645\u0631\u0648", "3707": "\u062d\u0641", "3708": "\u0631\u0641\u064a\u0629", "3709": "\u2581\u0633\u064a\u0645\u0627", "3710": "\u2581\u062a\u0642\u0631\u064a\u0628\u0627", "3711": "\u2581\u064a\u062d\u064a\u0649", "3712": "\u0631\u0647", "3713": "\u0628\u0631\u062a", "3714": "\u2581\u0627\u0644\u0627\u0645\u064a\u0631\u0643\u064a", "3715": "\u2581\u0627\u0644\u0645\u062a\u0639\u0644\u0642\u0629", "3716": "\u2581\u0627\u0644\u0645\u0635\u0631\u0649", "3717": "\u2581\u062f\u0645\u0634\u0642", "3718": "\u2581\u062d\u0645\u0644\u0629", "3719": "\u2581\u0623\u0631\u0628\u0639", "3720": "\u0645\u0627\u0626\u0629", "3721": "\u2581\u0627\u0644\u062b\u0644\u0627\u062b\u0629", "3722": "\u2581\u0628\u0642\u064a\u0645\u0629", "3723": "\u2581\u0627\u0644\u0639\u0646\u0641", "3724": "\u2581\u0648\u0627\u0643\u062f", "3725": "\u0635\u0627\u0628", "3726": "\u0641\u0631\u062f", "3727": "\u2581\u0633\u0624\u0627\u0644", "3728": "\u0646\u0627\u0639", "3729": "\u0627\u062d\u062b", "3730": "\u0647\u062c", "3731": "\u062c\u0644\u0629", "3732": "\u2581\u0627\u0644\u0642\u0644\u0628", "3733": "\u2581\u0627\u0644\u0645\u0646\u0627\u0641", "3734": "\u2581\u0627\u0644\u0631\u062c\u0627\u0644", "3735": "\u2581\u0633\u0627\u0628\u0642", "3736": "\u2581\u0627\u0644\u0648\u062d\u064a\u062f", "3737": "\u2581\u0627\u0644\u0639\u062a\u064a", "3738": "\u0628\u0627\u0643", "3739": "\u2581\u0643\u0627\u0645", "3740": "\u2581\u0628\u0633\u064a", "3741": "\u2581\u062a\u0631\u0627\u062c\u0639", "3742": "\u2581\u0627\u0644\u0646\u0642\u0644", "3743": "\u2581\u0627\u0644\u0646\u062a\u0627\u0626\u062c", "3744": "\u2581\u0642\u062a", "3745": "\u2581\u0627\u0644\u062a\u062f\u0631\u064a\u0628", "3746": "\u2581\u062c\u0648\u0631\u062c", "3747": "\u2581\u062a\u0645\u0631", "3748": "\u2581\u0627\u0644\u0647\u062c\u0648\u0645", "3749": "\u064a\u0641\u064a\u0629", "3750": "\u0642\u0627\u0637\u0639\u0629", "3751": "\u258100", "3752": "\u062d\u062f\u062f", "3753": "\u0644\u064a\u0648\u0646", "3754": "\u258136", "3755": "\u2581\u0628\u0648\u0634", "3756": "\u2581\u064a\u0642\u062f\u0631", "3757": "\u2581\u0627\u0636\u0627\u0641\u0629", "3758": "it", "3759": "\u0645\u062b", "3760": "\u2581\u0627\u0644\u062a\u0639\u0644\u064a\u0645\u064a\u0629", "3761": "\u0646\u0648\u0627\u0646", "3762": "\u062d\u0638", "3763": "\u2581\u0627\u0631", "3764": "\u2581\u0627\u0644\u0628\u0634\u0631\u064a\u0629", "3765": "\u2581\u0627\u0644\u0627\u0644\u062a", "3766": "\u2581\u0645\u0646\u0639", "3767": "\u2581\u0644\u0622", "3768": "\u0641\u0647\u0648\u0645", "3769": "\u0639\u0627\u0642\u062f", "3770": "\u062d\u0627\u062b", "3771": "\u0642\u0644\u0629", "3772": "\u0634\u0649", "3773": "\u2581\u062d\u0636", "3774": "\u2581\u0648\u0641\u0649", "3775": "\u2581\u0627\u0643\u062f", "3776": "\u2581\u064a\u0644\u0639\u0628", "3777": "\u2581\u0632\u0645\u0646", "3778": "\u2581\u0646\u0633\u062a", "3779": "\u2581\u0648\u0623\u0633", "3780": "\u2581\u0627\u0644\u0623\u0633\u0631", "3781": "\u2581\u0632\u064a\u0646", "3782": "\u2581\u062e\u0644\u0627", "3783": "\u2581\u0628\u0631\u064a", "3784": "\u2581\u0644\u0644\u0643", "3785": "\u2581\u0627\u0644\u0628\u062d\u0631\u064a\u0646", "3786": "\u2581\u0627\u0644\u0645\u0627\u0621", "3787": "\u2581\u0627\u0644\u0634\u0639\u0631", "3788": "\u2581\u064a\u0645\u0644\u0643", "3789": "\u2581\u0628\u0627\u0644\u0631", "3790": "\u2581\u0627\u0644\u0639\u0642\u062f", "3791": "\u2581\u0642\u0636\u0627\u064a\u0627", "3792": "\u2581\u0627\u0644\u0623\u0633\u0631\u0629", "3793": "\u2581\u062a\u0647\u062f", "3794": "\u2581\u0644\u0642\u0628", "3795": "\u2581\u0627\u0644\u0645\u062c\u0627\u0644\u0627\u062a", "3796": "\u2581\u0643\u0628\u0627\u0631", "3797": "\u0639\u0645\u0644", "3798": "\u2581\u062f\u0639\u0627", "3799": "\u2581\u0631\u0648\u064a\u062a", "3800": "\u0644\u0627\u062c", "3801": "\u2581\u0627\u0644\u0639\u0627\u0644\u064a", "3802": "\u062d\u0637", "3803": "\u2581\u0641\u0644\u0633\u0637\u064a\u0646", "3804": "\u2581\u0643\u0646\u0627", "3805": "\u0628\u0637\u0629", "3806": "\u2581\u0627\u0646\u062f", "3807": "\u2581\u0648\u0645\u0648", "3808": "\u2581\u062b\u0627\u0646\u064a\u0629", "3809": "\u2581\u0623\u0648\u0644\u0627", "3810": "\u0639\u0645\u0627\u0631", "3811": "\u2581\u0627\u0644\u0642\u062f\u064a\u0645\u0629", "3812": "\u2581\u0627\u0644\u0633\u062a", "3813": "\u2581\u062a\u0636", "3814": "\u25812013", "3815": "\u0648\u0627\u0645\u0644", "3816": "\u062c\u064a\u0646", "3817": "\u2581\u0627\u0646\u062a\u062e\u0627\u0628\u0627\u062a", "3818": "\u2581\u0645\u062a\u0648\u0633\u0637", "3819": "\u0637\u0649", "3820": "\u2581\u0627\u0644\u0642\u0627\u0626\u0645\u0629", "3821": "\u0632\u0647", "3822": "\u2581\u0644\u0644\u0627\u0646", "3823": "\u2581\u062d\u0631", "3824": "\u062b\u0631\u0629", "3825": "\u0631\u0648\u0629", "3826": "\u0633\u0628\u0627\u0646\u064a", "3827": "\u2581\u062a\u0634\u0643\u0644", "3828": "\u2581\u0627\u0644\u0623\u0633\u0627\u0633\u064a\u0629", "3829": "\u2581\u0627\u0644\u062f\u0646\u064a\u0627", "3830": "\u0641\u0639\u064a\u0644", "3831": "\u0648\u064a\u0642", "3832": "\u2581\u064a\u0645\u0646", "3833": "\u0637\u0627\u0642", "3834": "\u2581\u0627\u0644\u062c\u0645\u0647\u0648\u0631", "3835": "\u2581\u0627\u0644\u062d\u0642\u064a\u0642\u0629", "3836": "\u2581\u0633\u062a\u0629", "3837": "\u2581\u0631\u0643", "3838": "\u2581\u0627\u062b", "3839": "\u0627\u0644\u0641\u0629", "3840": "\u2581\u0627\u0644\u0639\u0631\u0636", "3841": "\u2581\u0627\u0644\u062d\u0627\u0644", "3842": "\u0628\u0647\u0629", "3843": "\u2581\u0648\u062a\u062c", "3844": "\u2581\u0633\u0647\u0645", "3845": "\u2581\u0644\u062f\u064a\u0647", "3846": "\u2581\u0627\u0644\u0635\u0628\u0627\u062d", "3847": "\u2581\u0628\u0633\u0631", "3848": "\u0648\u0627\u064a\u0629", "3849": "\u0645\u0644\u0643\u0629", "3850": "\u0627\u062e\u0644\u064a", "3851": "\u2581\u0622\u0633\u064a\u0627", "3852": "\u2581\u0645\u0635\u0644\u062d\u0629", "3853": "\u2581\u0645\u062d\u0643\u0645\u0629", "3854": "\u2581\u0627\u0644\u0622\u0633\u064a", "3855": "\u2581\u0627\u0646\u0641", "3856": "\u2581\u0642\u0646\u0627\u0629", "3857": "\u2581\u0627\u0644\u0645\u062f\u0646", "3858": "\u062c\u064a\u0631", "3859": "\u2581\u0644\u0644\u0639\u0645\u0644", "3860": "\u062e\u0637\u064a\u0637", "3861": "\u2581\u0627\u0644\u0646\u0638", "3862": "\u2581\u0627\u0644\u0633\u0643\u0627\u0646", "3863": "\u2581\u0631\u0648\u064a\u062a\u0631\u0632", "3864": "\u0628\u0627\u0644", "3865": "\u2581\u0641\u062c", "3866": "\u2581\u0645\u0631\u0627\u0643\u0632", "3867": "\u0648\u0631\u062a", "3868": "\u2581\u0627\u0644\u0645\u062d\u0627\u0641\u0638", "3869": "\u2581\u062d\u0627\u0644\u0627\u062a", "3870": "\u0637\u0644\u0628\u0627\u062a", "3871": "\u062c\u0647\u0648\u062f", "3872": "\u062c\u062d", "3873": "\u0642\u0648\u0637", "3874": "\u2581\u0627\u0644\u0627\u062e\u064a\u0631\u0629", "3875": "\u0648\u0627\u0647", "3876": "\u2581\u0641\u0631\u064a\u0642\u0647", "3877": "\u2581\u0634\u0631\u0637\u0629", "3878": "\u2581\u0627\u0644\u062d\u0645\u0644\u0629", "3879": "\u0645\u064a\u0631", "3880": "\u2581\u0628\u0643\u0631", "3881": "\u2581\u0639\u0627\u0626", "3882": "\u2581\u064a\u0632", "3883": "\u2581\u0627\u0644\u062c\u0646\u0648\u0628", "3884": "\u2581\u0627\u0644\u0645\u0633\u062a\u0634\u0641\u0649", "3885": "\u2581\u0628\u0637\u0631\u064a\u0642\u0629", "3886": "\u0628\u064a\u062a", "3887": "\u2581\u0645\u0644\u0641", "3888": "ed", "3889": "\u2581\u0627\u062c\u062a", "3890": "\u2581\u0633\u0627\u0639\u0627\u062a", "3891": "\u258134", "3892": "\u2581\u0627\u0644\u0638\u0631\u0648\u0641", "3893": "\u0648\u0632\u064a\u0631", "3894": "\u2581\u0627\u0644\u0645\u062a\u0648\u0642\u0639", "3895": "\u2581\u0627\u0644\u0631\u0628\u0639", "3896": "\u2581\u0627\u0645\u064a\u0631", "3897": "\u062c\u0645\u0629", "3898": "\u0648\u0631\u0627\u0642", "3899": "\u2581\u0627\u0644\u062c\u0632\u0627\u0626\u0631\u064a", "3900": "\u2581\u0627\u0644\u0622\u062e\u0631\u064a\u0646", "3901": "\u2581\u0628\u0639\u0646\u0648\u0627\u0646", "3902": "\u2581\u0627\u0644\u0639\u0648\u062f\u0629", "3903": "\u0628\u0643", "3904": "\u2581\u0627\u0644\u0627\u0633\u0644\u0627\u0645\u064a\u0629", "3905": "\u2581\u0627\u0644\u062b\u0642\u0627\u0641\u064a\u0629", "3906": "\u2581\u0623\u0634\u0627\u0631", "3907": "\u064a\u062f\u0627\u062a", "3908": "\u2581\u0634\u0647\u062f\u062a", "3909": "\u2581\u0648\u0627\u0644\u0622", "3910": "\u2581\u062a\u0631\u062c", "3911": "\u2581\u062e\u0644\u0642", "3912": "\u2581\u0643\u0644\u0647", "3913": "\u2581\u0627\u0644\u0639\u0636", "3914": "\u2581\u0627\u0644\u0635\u063a\u064a\u0631\u0629", "3915": "\u0648\u0627\u0629", "3916": "\u2581\u0627\u0644\u0645\u0647\u0645", "3917": "\u2581\u0641\u0643\u0627\u0646", "3918": "\u2581\u0648\u062a\u0627\u0628\u0639", "3919": "\u2581\u0645\u0636\u064a\u0641\u0627", "3920": "\u2581\u0642\u0627\u0639\u062f\u0629", "3921": "\u2581\u0627\u0641\u062a\u062a\u0627\u062d", "3922": "\u2581\u0623\u0628\u0631\u064a\u0644", "3923": "\u2581\u062f\u0642\u064a\u0642\u0629", "3924": "\u2581\u0627\u0644\u062a\u062c\u0627\u0631\u064a", "3925": "\u2581\u0627\u0644\u0645\u0643\u0631\u0645\u0629", "3926": "\u2581\u0627\u0644\u0627\u0634\u062a", "3927": "\u0627\u0626\u0646", "3928": "\u0642\u0644\u064a\u0645\u064a\u0629", "3929": "\u2581\u062f\u0648\u0631\u0629", "3930": "\u2581\u0642\u0636", "3931": "\u2581\u0627\u0644\u0623\u0642", "3932": "\u2581\u0648\u064a\u0644", "3933": "\u2581\u0644\u064a\u0646", "3934": "\u2581\u062a\u0633\u062c\u064a\u0644", "3935": "\u2581\u0628\u0634\u0631", "3936": "\u0639\u0627\u0621", "3937": "\u2581\u0627\u0644\u062a\u0642\u0644\u064a", "3938": "\u2581\u0627\u0644\u0646\u0648\u0639", "3939": "\u2581\u0627\u0644\u0645\u0647\u0645\u0629", "3940": "\u2581\u0627\u0644\u062a\u062e", "3941": "\u0648\u064a\u0648\u0631\u0643", "3942": "\u2581\u0648\u0627\u0644\u0645\u0648", "3943": "\u2581\u0627\u0644\u0627\u0633\u0628\u0648\u0639", "3944": "\u2581\u0645\u0647\u0631\u062c\u0627\u0646", "3945": "\u2581\u0627\u0644\u062f\u0631\u0627\u0633\u0627\u062a", "3946": "\u2581\u0625\u062c\u0631\u0627\u0621", "3947": "\u0631\u0645\u0649", "3948": "\u2581\u0646\u0627\u062d\u064a\u0629", "3949": "\u2581\u0627\u062a\u062e\u0627\u0630", "3950": "\u2581\u0627\u0644\u0623\u0642\u0644", "3951": "\u2581\u0627\u0644\u0628\u062f\u0627\u064a\u0629", "3952": "\u0644\u0645\u0627\u062a", "3953": "\u0626\u0644\u0629", "3954": "\u064a\u062a\u064a\u0646", "3955": "\u0646\u0627\u0641\u0633", "3956": "\u2581\u0627\u0644\u064a\u0647", "3957": "\u0633\u062d", "3958": "\u2581\u0645\u0627\u0630\u0627", "3959": "\u2581\u062c\u064a\u062f\u0629", "3960": "\u2581\u06482", "3961": "\u0646\u0627\u0645", "3962": "\u2581\u0648\u0644\u0644", "3963": "\u2581\u0635\u0641\u0631", "3964": "\u2581\u0641\u0641\u064a", "3965": "\u2581\u0639\u0628\u0627\u0631\u0629", "3966": "\u2581\u0637\u0648\u0627\u0644", "3967": "\u0648\u0627\u0626\u062f", "3968": "\u2581\u0645\u0631\u0627\u062a", "3969": "\u0631\u0627\u0637\u064a", "3970": "\u0634\u0641\u064a\u0627\u062a", "3971": "\u0648\u062f\u064a\u0629", "3972": "\u0642\u0648\u0644\u0647", "3973": "\u2581\u0648\u0627\u0644\u0633\u064a\u0627", "3974": "\u2581\u0641\u0642", "3975": "\u2581\u0648\u0634\u062f\u062f", "3976": "\u2581\u0645\u0633\u062a\u0648\u064a\u0627\u062a", "3977": "\u2581\u0627\u0644\u0641\u0631\u0635\u0629", "3978": "\u2581\u0627\u0644\u062b\u0642\u0629", "3979": "\u2581\u0644\u0644\u0645\u0639", "3980": "\u2581\u0623\u0646\u0648\u0627\u0639", "3981": "\u2581\u0628\u0639\u0636\u0647\u0645", "3982": "\u2581\u0627\u0646\u0638\u0631", "3983": "\u2581\u062c\u0627\u0628\u0631", "3984": "\u2581\u0627\u0644\u0642\u0648\u0629", "3985": "\u2581\u0635\u0646\u0627\u0639\u0629", "3986": "\u0646\u0627\u0633", "3987": "\u2581\u0641\u0625\u0630\u0627", "3988": "\u2581\u0628\u0644\u0627\u062f\u0647", "3989": "\u0646\u0648\u0646", "3990": "\u2581\u0633\u0637", "3991": "\u2581\u0648\u0643\u0623\u0646", "3992": "\u2581\u062f\u0647", "3993": "\u2581\u0627\u0644\u062a\u0646\u0638\u064a\u0645", "3994": "\u258170", "3995": "\u0642\u0627\u0630", "3996": "\u0628\u0639\u062f", "3997": "\u2581\u0631\u062d\u0645\u0647", "3998": "\u2581\u0627\u0644\u0634\u0627\u0631\u0642\u0629", "3999": "\u2581\u0635\u0639", "4000": "\u2581\u0630\u0627", "4001": "\u2581\u0644\u0644\u0623\u0633", "4002": "\u062c\u0647\u064a\u0632", "4003": "\u2581193", "4004": "\u0627\u0636\u0627\u0641\u0629", "4005": "\u2581\u0627\u0644\u0646\u0634\u0627\u0637", "4006": "\u2581\u064a\u0631\u0649", "4007": "\u2581\u0623\u063a\u0633\u0637\u0633", "4008": "\u2581\u0627\u064a\u062c", "4009": "\u0648\u0637\u0646", "4010": "es", "4011": "\u0633\u0627\u0639\u062f\u0629", "4012": "\u2581\u0632\u0645", "4013": "\u0627\u0626\u0644\u0627\u062a", "4014": "\u2581\u0627\u0644\u0634\u0627\u0631\u0639", "4015": "\u2581\u0633\u064a\u0627\u0633\u064a", "4016": "\u0631\u0627\u062c\u0639\u0629", "4017": "\u2581\u0648\u0623\u0646\u0647", "4018": "\u2581\u0643\u0644\u0627\u0645", "4019": "\u2581\u0623\u0633\u0627\u0633", "4020": "\u2581\u0645\u0633\u0631\u062d", "4021": "\u2581\u062a\u0648\u062c\u064a\u0647", "4022": "\u2581\u064a\u0646\u0628", "4023": "\u0627\u0645\u0631", "4024": "\u2581\u0648\u0627\u0628\u0646", "4025": "\u0631\u0627\u0626\u0645", "4026": "\u2581\u0627\u0644\u062f\u064a\u0645\u0642", "4027": "\u2581\u0627\u0644\u0642\u0628\u0633", "4028": "\u2581\u0627\u0644\u0648\u0638", "4029": "\u2581\u0645\u0648\u0646", "4030": "\u2581\u062a\u0642\u0644", "4031": "\u2581\u0623\u0646\u0646\u0627", "4032": "\u2581\u0628\u0627\u0643", "4033": "\u2581\u0641\u0633", "4034": "\u2581\u0643\u0644\u0647\u0627", "4035": "\u2581\u0633\u0644\u0633\u0644\u0629", "4036": "\u2581\u0627\u0644\u0635\u0648\u0631\u0629", "4037": "\u062d\u0633\u0646", "4038": "\u2581\u062a\u0648\u062c\u0647", "4039": "\u2581\u0639\u0628\u064a\u062f", "4040": "\u2581\u064a\u062d\u0635\u0644", "4041": "\u2581\u0645\u0627\u0644\u064a\u0629", "4042": "\u2581\u0645\u0646\u0627\u0642", "4043": "\u0631\u0627\u0641\u064a", "4044": "\u2581\u0627\u0644\u0639\u0642\u0627\u0631\u064a\u0629", "4045": "\u0634\u0647\u062f", "4046": "\u2581\u062a\u064a", "4047": "\u2581\u0627\u0644\u0637\u0644\u0628\u0629", "4048": "\u2581\u0627\u0644\u062c\u0648\u064a\u0629", "4049": "\u2581\u0627\u0644\u0645\u0639\u0646\u064a\u0629", "4050": "\u0642\u064a\u0646", "4051": "\u2581\u0627\u0644\u0631\u0634", "4052": "\u2581\u0646\u0645", "4053": "\u0646\u0628", "4054": "\u2581\u0644\u0643\u0646\u0647\u0627", "4055": "\u2581\u0627\u0644\u0645\u062f\u0646\u064a\u0629", "4056": "\u2581\u0628\u0639\u064a\u062f\u0627", "4057": "oo", "4058": "\u2581\u062b\u0642\u0629", "4059": "\u2581\u0627\u0644\u062e\u0627\u0645\u0633", "4060": "\u0647\u0627\u0621", "4061": "\u064a\u0641\u0647", "4062": "\u2581\u0627\u0644\u0633\u064a\u0646\u0645\u0627", "4063": "\u0643\u062a\u0631", "4064": "\u2581\u0627\u0644\u0646\u0628", "4065": "\u2581\u0627\u0644\u0632\u0645\u0646", "4066": "\u2581\u0627\u0644\u0625\u0633\u0631\u0627\u0626\u064a\u0644\u064a\u0629", "4067": "\u2581\u0627\u0644\u0645\u0646\u0627\u0641\u0633\u0629", "4068": "el", "4069": "\u062a\u0631\u0627", "4070": "\u0641\u0633\u0647\u0645", "4071": "\u2581\u0627\u0644\u0642\u064a\u0627\u0645", "4072": "\u2581\u064a\u0634\u0643\u0644", "4073": "\u2581\u0627\u0644\u0639\u0645\u0644\u064a\u0627\u062a", "4074": "\u0628\u0637\u0648\u0644\u0629", "4075": "\u0641\u0627\u0639\u0644", "4076": "\u2581\u064a\u0632\u0627\u0644", "4077": "\u2581\u0634\u0627\u0621", "4078": "\u2581\u0630\u0627\u062a\u0647", "4079": "\u0637\u0644\u0642\u062a", "4080": "\u2581\u0645\u062c\u0631\u062f", "4081": "\u2581\u0627\u0644\u062c\u0645\u0639", "4082": "\u2581\u0641\u0626\u0629", "4083": "\u2581\u0639\u0644\u0645\u0627", "4084": "\u062e\u0631\u062c\u0647", "4085": "\u2581\u062a\u0623\u0633\u064a\u0633", "4086": "\u2581\u0644\u0641\u062a", "4087": "\u258180", "4088": "\u2581\u0627\u0644\u0634\u0628", "4089": "\u2581\u0628\u0631\u0627", "4090": "\u0627\u0631\u0628\u0629", "4091": "\u2581\u0639\u0627\u062f\u0629", "4092": "\u0648\u062f\u064a", "4093": "\u0648\u0633\u0637\u0629", "4094": "\u064a\u0646\u0627\u062a", "4095": "\u2581\u0639\u0627\u062f\u0644", "4096": "\u0642\u0637\u0639", "4097": "\u2581\u0627\u0644\u0625\u0646\u062a\u0627\u062c", "4098": "\u0646\u0627\u064a\u0629", "4099": "\u0623\u0646\u062a", "4100": "\u2581\u0648\u064a\u062f", "4101": "\u2581\u0644\u0644\u062e", "4102": "\u2581\u0627\u064a\u0631\u0627\u0646", "4103": "\u2581\u062a\u0631\u062a", "4104": "\u2581\u0645\u0639\u062f\u0644", "4105": "\u2581\u0627\u0644\u0645\u0633\u062c\u062f", "4106": "\u2581\u064a\u0645\u062a", "4107": "\u2581\u0631\u0648\u0627\u064a\u0629", "4108": "\u2581\u064a\u062c\u062f", "4109": "\u2581\u0627\u0643\u0628\u0631", "4110": "\u2581\u0627\u0644\u0630\u0647", "4111": "\u2581\u0648\u062e\u0627\u0635\u0629", "4112": "\u2581\u0627\u0644\u0623\u0635\u0644", "4113": "\u2581\u0636\u0631\u0628", "4114": "\u258137", "4115": "\u0627\u0628\u0637", "4116": "\u0648\u062e", "4117": "\u2581\u0644\u0625\u0646", "4118": "\u2581\u0627\u0644\u0627\u0633\u0631\u0627\u0626\u064a\u0644\u064a", "4119": "\u0627\u0644\u0647", "4120": "\u2581\u0627\u0644\u0633\u0641\u064a\u0631", "4121": "\u2581\u062a\u0631\u0649", "4122": "\u2581\u0645\u0633\u062a\u0642\u0628\u0644", "4123": "\u2581\u064a\u0642\u0644", "4124": "\u0628\u064a\u0636", "4125": "\u2581\u0648\u0627\u0636\u062d\u0629", "4126": "\u2581\u0627\u0644\u0645\u0637\u064a\u0631\u064a", "4127": "\u0637\u0631\u0629", "4128": "\u2581\u0631\u0648\u0633\u064a\u0627", "4129": "\u2581\u0627\u0644\u0628\u062d\u0631\u064a\u0629", "4130": "\u2581\u0627\u0644\u062b\u0642\u0627\u0641\u064a", "4131": "\u2581\u0642\u0637\u0639", "4132": "\u2581\u0627\u0644\u0645\u0633\u062a\u0634\u0627\u0631", "4133": "\u2581\u064a\u062c\u0648\u0632", "4134": "\u2581\u0627\u0644\u063a\u0627\u0632", "4135": "\u2581\u0627\u0644\u0634\u0645\u0631\u064a", "4136": "\u2581\u0635\u0646\u062f\u0648\u0642", "4137": "\u2581\u0645\u0645\u0643\u0646", "4138": "\u2581\u0627\u0644\u0645\u0642\u062f", "4139": "\u0628\u062f\u0627\u0639", "4140": "\u2581\u0625\u0646\u0645\u0627", "4141": "\u2581\u0645\u0645\u0627\u0631", "4142": "\u2581\u0627\u0647", "4143": "\u2581\u0627\u0644\u0623\u0631\u0627\u0636\u064a", "4144": "\u2581\u0639\u064a\u0633\u0649", "4145": "\u062c\u0645\u0648\u0639\u0629", "4146": "\u2581\u0648\u064a\u0639\u062a", "4147": "\u2581\u0627\u0644\u0642\u062f\u0633", "4148": "\u2581\u0646\u062c\u062f", "4149": "\u0633\u0633", "4150": "\u2581\u0627\u0644\u0634\u0627\u0639\u0631", "4151": "\u2581\u0627\u0644\u0639\u062f\u0644", "4152": "\u2581\u0627\u0644\u0647\u062f", "4153": "\u0628\u0642\u0649", "4154": "\u2581\u0644\u062f\u064a\u0646\u0627", "4155": "\u2581\u0627\u0644\u0637\u0627\u0644\u0628", "4156": "\u0646\u062a\u0631\u0646\u062a", "4157": "\u2581\u0639\u0645\u0627", "4158": "\u0642\u064a\u0642\u0627\u062a", "4159": "\u2581\u0628\u062a\u0646", "4160": "\u2581\u0627\u0644\u0633\u0628\u0628", "4161": "\u2581\u0627\u0644\u0623\u062d\u062f", "4162": "\u0627\u0644\u0627", "4163": "\u0643\u0644\u0641", "4164": "\u2581\u0639\u0633", "4165": "\u2581\u0648\u0639\u0646\u062f\u0645\u0627", "4166": "\u2581\u0627\u0644\u0646\u0648\u0648\u064a", "4167": "\u2581\u0627\u0644\u0645\u062a\u062d\u062f\u062b", "4168": "\u2581\u062a\u063a\u064a\u0631", "4169": "\u2581\u062c\u0644\u0633\u0629", "4170": "\u2581\u062a\u062d\u062a\u0627\u062c", "4171": "\u258138", "4172": "\u0632\u0627\u064a\u062f", "4173": "\u2581\u0645\u0648\u0627\u0642\u0639", "4174": "\u2581\u0623\u0633\u0628\u0648\u0639", "4175": "\u2581\u0627\u0644\u0642\u062a", "4176": "\u2581\u0627\u0644\u062a\u063a\u064a\u064a\u0631", "4177": "\u0628\u064a\u0627\u0646", "4178": "\u2581\u0627\u0644\u0628\u0631\u0627", "4179": "\u2581\u0627\u0644\u062a\u0648\u0627\u0635\u0644", "4180": "\u2581\u062c\u064a", "4181": "\u2581\u0627\u0646\u062a\u0647\u0627\u0621", "4182": "\u0648\u0635\u0648\u0644", "4183": "\u2581\u0627\u0644\u0644\u064a\u0644", "4184": "\u2581\u0645\u064a\u0646", "4185": "\u2581\u0627\u0644\u0633\u064a\u0627\u0631\u0629", "4186": "\u0627\u0636\u0631", "4187": "\u062c\u0645\u0627\u062a", "4188": "\u2581\u062a\u0648\u0627\u062c\u0647", "4189": "\u2581\u0628\u0645\u0646\u0627\u0633\u0628\u0629", "4190": "\u0647\u0631\u0627\u0646", "4191": "\u2581\u0625\u0642\u0627\u0645\u0629", "4192": "\u2581\u0639\u062f\u064a\u062f\u0629", "4193": "\u0648\u0644\u062f", "4194": "\u0627\u0646\u064a\u064a\u0646", "4195": "\u0641\u0630", "4196": "\u2581\u062a\u0639\u0648\u062f", "4197": "\u2581\u0646\u0638\u0631", "4198": "\u2581\u0627\u0644\u0631\u0623\u064a", "4199": "\u2581\u0627\u0644\u0639\u0644\u0648\u0645", "4200": "\u2581\u0637\u0648\u0644", "4201": "\u2581\u0623\u062c\u0647\u0632\u0629", "4202": "\u2581\u0627\u0644\u0646\u0647\u0627\u0626\u064a\u0629", "4203": "\u2581\u0645\u062a\u0627\u0628\u0639\u0629", "4204": "\u0627\u0642\u0627\u062a", "4205": "\u0648\u0627\u062c\u062f", "4206": "\u2581\u0627\u0644\u0648\u0627\u0642", "4207": "\u2581\u063a\u062f\u0627", "4208": "\u2581\u0628\u0627\u0631\u064a\u0633", "4209": "\u2581\u0639\u0644\u064a\u0643", "4210": "\u2581\u0627\u0644\u0645\u0646\u0627\u0633\u0628", "4211": "\u0635\u0644\u062a", "4212": "\u2581\u0643\u0648\u064a\u062a", "4213": "\u2581\u0627\u0644\u0633\u0627\u062d", "4214": "\u2581\u0627\u0644\u062c\u0644\u0633\u0629", "4215": "\u2581\u0627\u0644\u0628\u062e", "4216": "\u2581\u0637\u0631\u064a\u0642\u0629", "4217": "\u2581\u0627\u0644\u064a\u062f", "4218": "\u2581\u0628\u0627\u0644\u0627\u0636\u0627\u0641\u0629", "4219": "\u0639\u062a\u0647\u0627", "4220": "\u2581\u0648\u062a\u0637\u0648\u064a\u0631", "4221": "\u0646\u0648\u0627\u062a", "4222": "\u2581\u0627\u0644\u0625\u0646\u0633\u0627\u0646\u064a\u0629", "4223": "\u2581\u0627\u0644\u063a\u0631\u0628", "4224": "\u2581\u0635\u0641\u0648\u0641", "4225": "\u2581\u0628\u0627\u0644\u0635", "4226": "\u2581\u0645\u0635\u0637\u0641\u0649", "4227": "\u0647\u0631\u0629", "4228": "\u062d\u0633\u0628", "4229": "\u064a\u0632\u0627\u0646\u064a\u0629", "4230": "\u2581\u0627\u0644\u0641\u0643\u0631", "4231": "\u2581\u063a\u0631\u0641\u0629", "4232": "\u2581\u0648\u0627\u0644\u0632", "4233": "\u2581\u0627\u0644\u0645\u0628\u0627\u0631\u064a\u0627\u062a", "4234": "\u2581\u0627\u0644\u0639\u0644\u0645\u0627\u0621", "4235": "\u2581\u0646\u0648\u0631", "4236": "\u2581\u0646\u0641\u0633\u064a", "4237": "\u2581\u0627\u0644\u0645\u0628\u0627\u0631\u0643", "4238": "\u062c\u0627\u0628", "4239": "\u2581\u0639\u0635\u0631", "4240": "\u2581\u0646\u064a\u0648\u064a\u0648\u0631\u0643", "4241": "\u2581\u0627\u062b\u0631", "4242": "\u2581\u0631\u0648\u062d", "4243": "\u0634\u0637", "4244": "\u2581\u0627\u0644\u0642\u0627\u0636\u064a", "4245": "\u0639\u0644\u0648\u0645", "4246": "\u2581\u0648\u0644\u0643\u0646\u0647", "4247": "\u2581\u0639\u0648\u062f\u0629", "4248": "\u0636\u0645\u0627\u0646", "4249": "\u0631\u064a\u0628\u0627\u062a", "4250": "\u2581\u0627\u0644\u0635\u0646\u062f\u0648\u0642", "4251": "\u2581\u062a\u0648\u062c\u062f", "4252": "\u2581\u064a\u0624\u0643\u062f", "4253": "\u2581\u0645\u0623", "4254": "\u2581\u0634\u0624\u0648\u0646", "4255": "\u0623\u062a\u064a", "4256": "\u2581\u064a\u062c\u0631\u064a", "4257": "\u2581\u0627\u0644\u062a\u062d\u0631\u064a\u0631", "4258": "\u2581\u062c\u0645\u0627\u0639\u0629", "4259": "\u2581\u062a\u0642\u062f\u064a\u0631", "4260": "\u2581\u0627\u0644\u0623\u062d\u062f\u0627\u062b", "4261": "\u2581\u0634\u062e\u0635\u0627", "4262": "\u2581\u062d\u0642\u064a\u0642\u0629", "4263": "\u2581\u062f\u0627\u0639", "4264": "\u2581\u0628\u0642\u064a\u0627\u062f\u0629", "4265": "\u0632\u062a", "4266": "\u2581\u062a\u062d\u0642\u0642", "4267": "\u2581\u062a\u0646\u0627\u0648\u0644", "4268": "\u2581\u0645\u062b\u0644\u0627", "4269": "\u0645\u0648\u0639\u0627\u062a", "4270": "\u2581\u0628\u064a\u0646\u0647\u0645\u0627", "4271": "\u062f\u0631\u064a\u0628", "4272": "\u2581\u0627\u0630", "4273": "\u2581\u0637\u064a\u0628", "4274": "\u2581\u0645\u062d\u0644", "4275": "\u2581\u0646\u0647\u064a\u0627\u0646", "4276": "\u0633\u064a\u0645", "4277": "\u064a\u0631\u0627\u0646\u064a\u0629", "4278": "\u2581\u064a\u0634\u062a", "4279": "\u2581\u0645\u0634\u0627\u0643\u0644", "4280": "\u2581\u0627\u0644\u062a\u0639\u062f", "4281": "\u063a\u0627\u064a\u0629", "4282": "\u2581\u0627\u0644\u062a\u0631\u0628", "4283": "\u2581\u0635\u063a\u064a\u0631\u0629", "4284": "\u2581\u0639\u0631\u0628\u064a\u0629", "4285": "\u0644\u064a\u0633", "4286": "\u2581\u0627\u0644\u062d\u0631\u064a\u0629", "4287": "\u2581\u0637\u0631\u0641", "4288": "\u2581\u062a\u0631\u0643\u064a\u0627", "4289": "\u2581\u0627\u0644\u0643\u0647\u0631\u0628\u0627\u0621", "4290": "\u062d\u0648\u0627\u0644", "4291": "\u2581\u0643\u0648", "4292": "\u2581\u0627\u0644\u062a\u0642\u062f\u0645", "4293": "\u2581\u0627\u0633\u0645\u0647", "4294": "\u2581\u0627\u0644\u0645\u0646\u0648\u0631\u0629", "4295": "\u2581\u0627\u0644\u0641\u0644\u0633\u0637\u064a\u0646\u064a\u064a\u0646", "4296": "\u2581\u0627\u0644\u062d\u0627\u0644\u0629", "4297": "\u2581\u0648\u0641\u0631", "4298": "\u2581\u0627\u0644\u0639\u062a\u064a\u0628\u064a", "4299": "\u2581\u0648\u062a\u0648\u0641\u064a", "4300": "\u0646\u0627\u0626\u064a", "4301": "\u2581\u0644\u063a", "4302": "\u2581\u0644\u0644\u062a\u0646", "4303": "\u2581\u0633\u064a\u0641", "4304": "\u2581\u062e\u0628\u0631", "4305": "\u2581\u0644\u064a\u0628", "4306": "\u2581\u0648\u0623\u0634", "4307": "\u2581\u0633\u0627\u0628\u0642\u0627", "4308": "\u0642\u0631\u0623", "4309": "\u2581\u0645\u0648\u0627\u0637\u0646", "4310": "\u2581\u0627\u0644\u0646\u0647\u0627\u064a\u0629", "4311": "\u2581\u0632\u064a\u062f", "4312": "\u2581\u0642\u0631\u0631", "4313": "\u2581\u0625\u0639", "4314": "\u0639\u062a\u0642\u062f", "4315": "\u2581\u0643\u0623", "4316": "\u2581\u0634\u064a\u062e", "4317": "\u2581\u0627\u0639\u0645\u0627\u0644", "4318": "\u2581\u0633\u0646\u0648\u064a\u0627", "4319": "\u2581\u062e\u0644\u0627\u0641", "4320": "\u2581\u0648\u0623\u062e", "4321": "\u0636\u064a\u0639", "4322": "\u2581\u0645\u0633\u0644", "4323": "\u062c\u062a\u0645\u0627\u0639\u064a\u0629", "4324": "\u2581\u0648\u064a\u0645\u0643\u0646", "4325": "\u0642\u064a\u0627\u062a", "4326": "\u2581\u0627\u0644\u0639\u0642\u0627\u0631\u064a", "4327": "\u2581\u0623\u0633\u0628\u0627\u0628", "4328": "\u2581\u0648\u0623\u064a", "4329": "\u2581\u0627\u0644\u0648\u0641\u062f", "4330": "\u2581\u0631\u0639\u0627\u064a\u0629", "4331": "\u2581\u0627\u0644\u062f\u0631\u062c\u0629", "4332": "\u2581\u0627\u0644\u0639\u0635\u0631", "4333": "\u2581\u0648\u0646\u0633\u0628\u0629", "4334": "\u2581\u0648\u0630\u0643\u0631\u062a", "4335": "\u2581\u0645\u0633\u0627\u062d\u0629", "4336": "\u2581\u0627\u0644\u0645\u0648\u0642\u0641", "4337": "\u0648\u0627\u0626\u0644", "4338": "\u2581\u0645\u0624\u0633\u0633\u0627\u062a", "4339": "\u2581\u0627\u0644\u0646\u064a\u0627\u0628\u0629", "4340": "\u2581\u0627\u0644\u0641\u0631\u062f", "4341": "\u0645\u0648\u064a\u0629", "4342": "\u064a\u0637\u0627\u0644\u064a", "4343": "\u2581\u0627\u0644\u062e\u0644\u064a\u062c\u064a", "4344": "\u2581\u0623\u0633\u0647\u0645", "4345": "\u0644\u0645\u064a", "4346": "\u2581\u0627\u0644\u0645\u0643\u062a", "4347": "\u062e\u0637\u0627\u0621", "4348": "\u2581\u0648\u0627\u0644\u0645\u0631", "4349": "\u2581\u0641\u0631\u0639", "4350": "\u2581\u0628\u0645\u0633\u062a", "4351": "\u2581\u062d\u0638", "4352": "\u062a\u0627\u0645", "4353": "\u2581\u0627\u0644\u0628\u0644\u062f\u064a", "4354": "\u0645\u062a\u0639", "4355": "\u2581\u0627\u0644\u0646\u062c\u0627\u062d", "4356": "\u2581\u0627\u0644\u0644\u0628\u0646\u0627\u0646\u064a\u064a\u0646", "4357": "\u062f\u062e\u0644", "4358": "\u062b\u064a", "4359": "\u2581\u0648\u0627\u0644\u0645\u062d", "4360": "\u2581\u0627\u0644\u0628\u0627", "4361": "\u258190", "4362": "\u2581\u0627\u0644\u062e\u0644\u064a\u062c\u064a\u0629", "4363": "\u2581\u062a\u0632\u0627\u0644", "4364": "\u2581\u0633\u064a\u0627\u0633\u0629", "4365": "\u2581\u0627\u0644\u0633\u0641\u0631", "4366": "\u0630\u064a\u0628", "4367": "\u2581\u0627\u0644\u0646\u0632", "4368": "\u2581\u0623\u0644\u0645\u0627\u0646\u064a\u0627", "4369": "\u2581\u064a\u0642\u0627\u0644", "4370": "\u2581\u0627\u0644\u062d\u0631\u0628\u064a", "4371": "\u0632\u064a\u0644\u064a", "4372": "\u2581\u0648\u0637\u0627\u0644\u0628", "4373": "\u2581\u0634\u0631\u0627\u0621", "4374": "\u0633\u0627\u0637", "4375": "\u0624\u0643\u062f", "4376": "\u0648\u0644\u0627\u064a\u0629", "4377": "\u2581\u0627\u0644\u0642\u0627\u0646\u0648\u0646\u064a\u0629", "4378": "\u064a\u0644\u0647", "4379": "\u2581\u0628\u0639\u062f\u0645", "4380": "\u2581\u0641\u0644\u0645", "4381": "\u2581\u0627\u0644\u0632\u0648\u062c", "4382": "\u2581\u0627\u0644\u0631\u0626\u0627\u0633\u0629", "4383": "\u2581\u0627\u0644\u062a\u0636", "4384": "\u2581\u0627\u0644\u0642\u0628\u0636", "4385": "\u0631\u0648\u064a", "4386": "\u2581\u0627\u0644\u0648\u0643", "4387": "\u2581\u0648\u0644\u064a\u062f", "4388": "\u2581\u0627\u0644\u0645\u063a\u0631\u0628", "4389": "\u063a\u0648\u0637", "4390": "\u0627\u0644\u064a\u062f", "4391": "\u063a\u0627\u0621", "4392": "\u2581\u0628\u0645\u062f\u064a\u0646\u0629", "4393": "\u2581\u0627\u0644\u0623\u0633\u0647\u0645", "4394": "\u0627\u0644\u0643", "4395": "\u2581\u062c\u064a\u062f\u0627", "4396": "\u2581\u0627\u0644\u0625\u062c\u0631\u0627\u0621\u0627\u062a", "4397": "\u2581\u0625\u0639\u062f\u0627\u062f", "4398": "\u062d\u062a\u0647", "4399": "\u2581\u062a\u0635\u0631\u064a\u062d\u0627\u062a", "4400": "\u2581\u0644\u0644\u0645\u0633\u062a", "4401": "\u0627\u064a\u064a\u0631", "4402": "\u0631\u0633\u0627\u0644", "4403": "\u2581\u062a\u0639\u0644\u0645", "4404": "\u2581\u0631\u0648\u0627\u0647", "4405": "\u0643\u0631\u0631", "4406": "\u2581\u0627\u0646\u0646\u0627", "4407": "\u2581\u0645\u0637\u0627\u0631", "4408": "\u2581\u0645\u062f\u0629", "4409": "\u2581\u0627\u0644\u0645\u062a\u0646", "4410": "\u2581\u0634\u0631\u062d", "4411": "\u0633\u0639", "4412": "\u2581\u0627\u0644\u0627\u0646\u062a\u062e\u0627\u0628\u064a\u0629", "4413": "\u2581\u0648\u062a\u0631", "4414": "\u062c\u0648\u0646", "4415": "\u2581\u0645\u0646\u0632\u0644", "4416": "\u2581\u0627\u0644\u0642\u0637\u0627\u0639\u0627\u062a", "4417": "\u2581\u062a\u0636\u0645\u0646", "4418": "\u2581\u0646\u0627\u064a\u0641", "4419": "\u2581\u0639\u0645\u0627\u0646", "4420": "\u2581\u0627\u0644\u062d\u0627\u062f\u062b", "4421": "\u2581\u0623\u0645\u0644", "4422": "\u2581\u0627\u0644\u062d\u0633\u0646", "4423": "\u2581\u0645\u0633\u0644\u0633\u0644", "4424": "\u062a\u0647\u0645\u0627", "4425": "\u2581\u062a\u0631\u0628", "4426": "\u2581\u0627\u0644\u0635\u062d\u0641", "4427": "\u0648\u0641\u0627", "4428": "\u2581\u0627\u0644\u0623\u0646\u062f\u064a\u0629", "4429": "\u2581\u0627\u0644\u064a\u0647\u0648\u062f", "4430": "\u2581\u0645\u0635\u0627\u0644\u062d", "4431": "\u2581\u0644\u0630\u0627", "4432": "\u2581\u0627\u0644\u062a\u0648\u0646", "4433": "\u2581\u0627\u0644\u064a\u0648\u0646", "4434": "\u062d\u0627\u064a\u0627", "4435": "\u2581\u0627\u0641\u0636\u0644", "4436": "\u0648\u0627\u062f\u062b", "4437": "\u2581\u0635\u0639\u064a\u062f", "4438": "\u0648\u0627\u0646\u0628", "4439": "10", "4440": "\u2581\u062a\u0634\u0645\u0644", "4441": "\u2581\u0644\u0648\u0643", "4442": "\u2581\u0645\u0646\u062a\u0635\u0641", "4443": "\u2581500", "4444": "\u2581\u0627\u0644\u0627\u0628", "4445": "\u2581\u0627\u0644\u062c\u0648", "4446": "\u2581\u0648\u0628\u0646", "4447": "\u2581\u0627\u0644\u0628\u0627\u0631", "4448": "\u2581\u0645\u0633\u0623\u0644\u0629", "4449": "\u2581\u0644\u0644\u0645\u0631\u0629", "4450": "\u0642\u0627\u0634", "4451": "\u062a\u0643", "4452": "\u2581\u0645\u0633\u064a\u0631\u0629", "4453": "\u0641\u0627\u0621\u0629", "4454": "\u2581\u0627\u0639\u062a\u0628\u0631", "4455": "\u2581\u0627\u0633\u062a\u0642\u0628\u0627\u0644", "4456": "\u2581\u0648\u0627\u0639\u062a\u0628\u0631", "4457": "\u2581\u0627\u0644\u0645\u0637\u0644\u0648\u0628", "4458": "\u2581\u0627\u0644\u0645\u0634\u0627\u0631\u0643\u064a\u0646", "4459": "\u2581\u062a\u062c\u0631\u0628\u0629", "4460": "\u2581\u0636\u0628\u0637", "4461": "\u2581\u064a\u0639\u0644\u0645", "4462": "\u0645\u0648\u062a", "4463": "\u2581\u0645\u062c\u0627\u0644\u0627\u062a", "4464": "\u2581\u0628\u0637\u0644", "4465": "\u2581\u0648\u0631\u063a\u0645", "4466": "\u2581\u0627\u0644\u0645\u0643\u062a\u0628", "4467": "\u2581\u0627\u0644\u0623\u062c\u0647\u0632\u0629", "4468": "\u2581\u0627\u0646\u062e\u0641\u0627\u0636", "4469": "\u2581\u0648\u0631\u0628\u0645\u0627", "4470": "\u2581\u064a\u062f\u062e\u0644", "4471": "\u062e\u0631\u0629", "4472": "\u0647\u062f\u064a", "4473": "\u0631\u0631", "4474": "\u2581\u0627\u0644\u0639\u062f\u062f", "4475": "\u0623\u0649", "4476": "\u2581\u0627\u0644\u062c\u0627\u0645\u0639\u0627\u062a", "4477": "\u2581\u0627\u0644\u0641\u064a", "4478": "\u0628\u064a\u0639\u0627\u062a", "4479": "\u2581\u0635\u0644\u0627\u0629", "4480": "\u2581\u0645\u0633\u0624\u0648\u0644\u064a\u0629", "4481": "\u0641\u0627\u0641", "4482": "\u2581\u0645\u064a\u062f", "4483": "\u0631\u0648\u0641\u0629", "4484": "\u2581\u062a\u062e\u0635", "4485": "\u2581\u0648\u062f\u0639\u0627", "4486": "\u2581\u0628\u064a\u062f", "4487": "\u2581\u0627\u0644\u062f\u064a\u0646\u064a\u0629", "4488": "\u2581\u0641\u0627\u0637", "4489": "\u0627\u062f\u0627", "4490": "\u0627\u0644\u0644\u0647", "4491": "\u2581\u0627\u0644\u0645\u0642\u0631\u0631", "4492": "\u0632\u0642", "4493": "\u2581\u0627\u0644\u0628\u0627\u0628", "4494": "\u2581\u0623\u0641\u0631\u064a\u0642\u064a\u0627", "4495": "\u0627\u0647\u062f\u0629", "4496": "\u2581\u0648\u0642\u0639\u062a", "4497": "\u2581\u0639\u0644\u0627\u0642\u0627\u062a", "4498": "\u0624\u064a\u0629", "4499": "\u2581\u0627\u0644\u0627\u062c", "4500": "\u0648\u0646\u063a", "4501": "\u0633\u0628\u0627\u0646\u064a\u0627", "4502": "\u2581\u0627\u0644\u0627\u062a\u0635\u0627\u0644", "4503": "\u0628\u0627\u0647", "4504": "\u2581\u0627\u0646\u062a\u062e", "4505": "\u2581\u0645\u0632\u064a\u062f", "4506": "\u2581\u0627\u0644\u0633\u0643\u0646\u064a\u0629", "4507": "\u2581\u0634\u0627", "4508": "\u2581\u0627\u0644\u0633\u064a\u0627\u062d\u0629", "4509": "\u2581\u062a\u0645\u0646", "4510": "\u0647\u0644\u0629", "4511": "\u2581\u0648\u0627\u0648\u0636\u062d", "4512": "\u2581\u0645\u0642\u062f", "4513": "\u2581\u0627\u0644\u0637\u0628\u064a\u0639\u064a", "4514": "\u2581\u0627\u0644\u062f\u062e\u0648\u0644", "4515": "\u2581\u0648\u0648\u0636\u0639", "4516": "\u0631\u064a\u0642\u064a", "4517": "\u2581\u0645\u0639\u064a\u0646\u0629", "4518": "\u2581\u0627\u0644\u062e\u064a\u0631\u064a\u0629", "4519": "\u0642\u0648\u0642", "4520": "\u2581\u0627\u0644\u0631\u064a\u0627\u0636\u0629", "4521": "\u062a\u0627\u0646", "4522": "\u2581\u0630\u0648\u064a", "4523": "\u2581\u062c\u0627", "4524": "\u2581\u0625\u062c\u0645\u0627\u0644\u064a", "4525": "\u258148", "4526": "\u2581\u0635\u062d\u0641\u064a", "4527": "\u2581\u0627\u0644\u062d\u0627\u0644\u0627\u062a", "4528": "\u2581\u0648\u0633\u062c\u0644", "4529": "\u2581\u0627\u0644\u0645\u0633\u0624\u0648\u0644\u064a\u0629", "4530": "\u062d\u0644\u0629", "4531": "\u2581\u062f\u0627\u0648\u062f", "4532": "\u2581\u0633\u064a\u0639", "4533": "\u2581\u0627\u0644\u062e\u0644\u0627\u0641", "4534": "\u2581\u0633\u0627\u0647\u0645", "4535": "\u2581\u0627\u0644\u0623\u062d\u0645\u0631", "4536": "\u2581\u0623\u062b", "4537": "\u0628\u0627\u062f\u0626", "4538": "\u2581\u0627\u0633\u062a\u0637\u0627\u0639", "4539": "\u0642\u0627\u0626\u0642", "4540": "\u2581\u0644\u062a\u0633", "4541": "\u2581\u0644\u0628\u0639\u0636", "4542": "30", "4543": "\u2581\u0627\u0644\u0645\u0644\u0641", "4544": "\u2581\u0639\u062b\u0645\u0627\u0646", "4545": "\u0646\u064a\u064a\u0646", "4546": "\u0645\u0644\u064a\u0629", "4547": "\u062a\u0631\u0646\u062a", "4548": "\u2581\u0627\u0644\u0635\u063a\u064a\u0631", "4549": "\u2581\u0642\u0635\u0631", "4550": "\u0639\u064a\u0634", "4551": "\u2581\u0627\u0644\u0627\u0646\u0633\u0627\u0646", "4552": "\u2581\u0644\u062c\u0645\u064a\u0639", "4553": "\u2581\u0648\u0647\u0644", "4554": "\u062c\u0645\u0639", "4555": "\u062f\u0648\u0646", "4556": "\u2581\u0627\u0644\u062a\u0632\u0627\u0645", "4557": "\u2581\u0644\u0644\u0645\u0648\u0627", "4558": "\u2581\u0627\u0644\u062c\u0646\u0633\u064a\u0629", "4559": "\u2581\u0627\u0644\u0623\u0631\u0628\u0639\u0627\u0621", "4560": "\u2581\u0645\u0631\u0648\u0631", "4561": "\u0631\u0642\u0627\u0645", "4562": "\u0635\u0631\u0641", "4563": "\u2581\u0648\u0632\u0631\u0627\u0621", "4564": "\u2581\u0623\u0642\u064a\u0645", "4565": "\u2581\u0627\u0644\u0633\u0645", "4566": "\u0642\u064a\u0628", "4567": "\u2581\u0644\u0634\u0631\u0643\u0629", "4568": "\u2581\u0631\u0627\u0628", "4569": "\u062d\u0631\u0643", "4570": "\u0644\u0627\u0639\u0628", "4571": "\u0645\u0627\u062d", "4572": "\u2581\u0645\u0639\u0646\u0649", "4573": "\u0641\u0632", "4574": "\u2581\u064a\u0644\u062a", "4575": "\u2581\u0625\u0628", "4576": "\u0644\u0648\u0644", "4577": "\u25812003", "4578": "\u2581\u0635\u062d\u0629", "4579": "\u2581\u0645\u0624\u0634\u0631", "4580": "\u2581\u0627\u0646\u0639", "4581": "\u2581\u0627\u0644\u0641\u0633\u0627\u062f", "4582": "\u0636\u0631\u0628", "4583": "\u2581\u0628\u0645\u062f", "4584": "\u0633\u062a\u0647", "4585": "\u2581\u0648\u0627\u062e\u062a", "4586": "\u0633\u0641", "4587": "\u2581\u0642\u0631\u0627\u0631\u0627\u062a", "4588": "\u2581\u0646\u0635\u0631", "4589": "\u2581\u0645\u064a\u0627\u0647", "4590": "\u2581\u0646\u0638\u0645", "4591": "\u0643\u0645\u0644", "4592": "\u0637\u0645", "4593": "\u2581\u0627\u0644\u0645\u0634\u062a\u0631\u0643\u0629", "4594": "\u2581\u062c\u0631\u0649", "4595": "\u2581\u062d\u0632", "4596": "\u2581\u0644\u0635\u0627\u0644\u062d", "4597": "\u0627\u0645\u0627\u062a", "4598": "\u2581\u0627\u0644\u0645\u0648\u062a", "4599": "\u0647\u0644\u064a\u0629", "4600": "\u2581\u0628\u0627\u0644\u063a", "4601": "\u2581as", "4602": "\u2581\u0644\u062f\u064a\u0647\u0645", "4603": "\u063a\u0627\u0646\u0633\u062a\u0627\u0646", "4604": "\u2581\u0644\u0644\u0645\u0634\u0627\u0631\u0643\u0629", "4605": "\u2581\u0623\u064a\u0646", "4606": "\u2581\u062a\u0648\u0646\u0633", "4607": "\u0637\u0627\u0644\u064a\u0627", "4608": "\u2581\u0645\u062d\u0637\u0629", "4609": "\u2581\u0627\u0644\u0645\u0624\u0644\u0641", "4610": "\u2581\u062a\u062d\u0648\u064a\u0644", "4611": "\u062e\u064a\u0644", "4612": "\u2581\u0627\u0644\u0645\u0642\u062f\u0645\u0629", "4613": "\u064a\u062a\u0634", "4614": "\u2581\u0627\u0644\u062f\u0627\u062e\u0644\u064a", "4615": "\u0645\u0627\u0647", "4616": "\u2581\u0623\u0632\u0645\u0629", "4617": "\u2581\u062c\u064a\u062f", "4618": "\u0646\u0647", "4619": "\u0648\u0631\u064a\u0646", "4620": "\u2581\u0645\u0642\u062a\u0644", "4621": "\u0635\u0631\u064a", "4622": "\u2581\u0627\u0644\u0623\u0648\u0631\u0648\u0628\u064a\u0629", "4623": "\u2581\u0639\u0645\u0644\u0647", "4624": "\u2581\u0627\u0644\u0642\u0636", "4625": "\u2581\u0627\u0644\u0632\u0648\u0627\u062c", "4626": "\u2581\u0627\u0644\u0645\u0633\u0644\u0645", "4627": "\u2581\u0627\u0644\u0648\u062c", "4628": "\u2581\u0627\u0644\u0645\u0642\u0627\u0628\u0644", "4629": "\u2581\u0627\u0644\u0645\u062c\u0627", "4630": "\u2581\u062a\u0628\u062f\u0623", "4631": "\u064a\u0627\u0632", "4632": "\u2581\u0627\u0644\u0627\u0635", "4633": "\u2581\u0628\u0644\u062f\u0629", "4634": "\u2581\u0645\u0631\u0648", "4635": "\u2581\u0627\u0646\u062a\u0634\u0627\u0631", "4636": "\u2581\u0633\u0623", "4637": "\u2581\u0631\u0624\u064a\u0629", "4638": "\u2581\u0645\u0627\u062f\u0629", "4639": "\u2581\u0627\u0644\u062a\u0645\u0648\u064a\u0644", "4640": "\u2581\u0643\u0641", "4641": "\u2581\u0627\u0639\u0636\u0627\u0621", "4642": "\u2581\u0627\u0644\u062a\u0642\u0646\u064a\u0629", "4643": "\u2581\u0628\u0645\u062d\u0627\u0641\u0638\u0629", "4644": "\u2581\u0627\u0644\u0639\u0627\u0645\u0644\u0629", "4645": "\u258175", "4646": "\u0639\u0627\u0646", "4647": "\u2581\u0627\u0644\u0645\u0633\u062a\u062b\u0645\u0631\u064a\u0646", "4648": "\u2581\u0627\u0644\u0628\u0627\u062d\u062b", "4649": "\u2581\u0642\u062f\u0645\u062a", "4650": "\u064a\u0627\u0637", "4651": "\u2581\u0641\u0635\u0644", "4652": "\u2581\u0634\u0627\u0647\u062f", "4653": "\u2581\u0648\u0623\u0645\u0627", "4654": "\u2581\u062f\u0644\u064a\u0644", "4655": "\u2581\u0644\u0627\u0628\u062f", "4656": "\u0632\u0648", "4657": "\u2581\u0631\u0648", "4658": "\u2581\u0645\u062f\u0631\u064a\u062f", "4659": "\u2581\u0648\u0645\u0631", "4660": "\u2581\u0625\u0639\u0644\u0627\u0646", "4661": "\u2581\u0627\u0644\u0642\u0645\u0629", "4662": "\u2581\u0627\u0645\u0631\u0623\u0629", "4663": "\u2581\u0634\u0631\u064a", "4664": "\u2581\u0627\u0644\u062c\u0632\u0621", "4665": "\u2581\u0627\u0644\u062d\u0627\u062c\u0629", "4666": "\u0645\u064a\u0632\u0629", "4667": "\u2581\u0634\u0628\u0647", "4668": "\u2581\u0627\u0644\u0628\u0631\u062a", "4669": "\u0632\u0645\u0627\u062a", "4670": "\u2581\u0627\u0644\u0645\u0642\u0627\u0648\u0645\u0629", "4671": "\u2581\u0627\u0644\u0628\u0644\u062f\u0627\u0646", "4672": "\u2581\u062a\u0631\u064a\u062f", "4673": "\u2581\u0631\u064a", "4674": "\u2581\u0627\u0633\u062a\u0642\u0628\u0644", "4675": "\u2581\u0648\u062a\u0637", "4676": "\u2581\u0627\u0644\u062c\u0645\u0627\u0639\u0629", "4677": "\u2581\u0648\u064a\u0634", "4678": "\u2581\u0623\u0646\u062d\u0627\u0621", "4679": "\u2581\u062a\u0648\u0641\u0631", "4680": "\u064a\u0644\u064a\u0629", "4681": "\u2581\u0637\u0641", "4682": "\u2581\u0648\u0627\u0636\u062d", "4683": "\u2581\u0627\u0644\u062a\u0648\u0627\u0644\u064a", "4684": "\u2581\u0628\u0627\u0644\u0628", "4685": "\u2581\u064a\u0638\u0647\u0631", "4686": "\u2581\u0627\u0644\u062a\u0634\u0631\u064a", "4687": "\u0644\u062a\u0642\u0649", "4688": "\u258165", "4689": "\u2581\u0627\u0644\u0633\u0648\u062f\u0627\u0646", "4690": "\u2581\u062d\u0635\u0648\u0644", "4691": "\u2581\u0628\u0631\u064a\u0637\u0627\u0646\u064a\u0627", "4692": "\u0643\u0644\u0645", "4693": "\u0631\u0648\u064a\u062c", "4694": "\u0631\u0637", "4695": "\u062a\u0639", "4696": "\u258139", "4697": "\u2581\u0627\u0644\u062a\u0631\u0627\u062b", "4698": "\u2581\u0627\u0644\u062d\u0636\u0648\u0631", "4699": "\u2581\u062a\u0647\u062f\u0641", "4700": "\u2581\u062a\u0639\u064a\u0634", "4701": "\u2581\u0627\u0644\u0634\u0647\u064a\u062f", "4702": "\u2581\u0647\u0645\u0627", "4703": "\u0648\u0642\u0648\u0641", "4704": "\u0645\u0648\u0632", "4705": "\u2581\u0627\u0644\u0627\u0645\u0627\u0631\u0627\u062a", "4706": "\u2581\u0646\u0627\u062c", "4707": "\u062d\u062a\u0647\u0627", "4708": "\u2581\u0627\u0644\u0646\u0627\u062a", "4709": "\u2581\u062e\u0637\u0648\u0629", "4710": "\u2581\u0627\u0644\u0635\u062d\u064a\u062d", "4711": "\u2581\u0634\u0647\u0627\u062f\u0629", "4712": "\u2581300", "4713": "\u2581\u0627\u0644\u0641\u0635\u0644", "4714": "\u0639\u0648\u062f\u0629", "4715": "\u2581\u0631\u0627\u0626", "4716": "\u2581\u0648\u0644\u0630\u0644\u0643", "4717": "\u2581\u063a\u064a\u0631\u0647", "4718": "\u2581\u0645\u0628\u0644\u063a", "4719": "\u2581\u062a\u062c\u062f", "4720": "\u0627\u0646\u0647", "4721": "\u258142", "4722": "\u2581\u0648\u0623\u0641", "4723": "\u0645\u0648\u0646", "4724": "\u062a\u064a\u0634", "4725": "\u2581\u0627\u0644\u0627\u0644\u0643\u062a\u0631", "4726": "\u2581\u0627\u0644\u0623\u0633\u0639\u0627\u0631", "4727": "\u064a\u0646\u0647", "4728": "\u2581\u062d\u0627\u062c", "4729": "\u2581\u0628\u062a\u0633", "4730": "\u2581\u0623\u0648\u0636\u062d", "4731": "\u2581\u0627\u0644\u0645\u0644\u0639\u0628", "4732": "\u2581\u0627\u0644\u0645\u0630\u0643", "4733": "\u2581\u0639\u0628\u062f\u0627\u0644\u0645", "4734": "\u2581\u0628\u062d\u0627\u062c\u0629", "4735": "\u2581\u0627\u0644\u0633\u0627\u062d\u0629", "4736": "\u2581\u0642\u0645\u0629", "4737": "\u2581\u0645\u0642\u062f\u0645", "4738": "\u0627\u0631\u064a\u0627", "4739": "\u2581\u062d\u062f\u0648\u062b", "4740": "\u2581\u0645\u0646\u0633", "4741": "\u2581\u0644\u0639\u062f\u0645", "4742": "\u0644\u0627\u0644\u0629", "4743": "\u2581\u0627\u0644\u0627\u0639", "4744": "\u2581\u0627\u0644\u062d\u0633\u064a\u0646", "4745": "\u2581\u062c\u0632\u0621\u0627", "4746": "\u2581\u0627\u0644\u0645\u0631\u0627\u0643\u0632", "4747": "\u2581\u0627\u0639\u062a\u0645\u0627\u062f", "4748": "\u2581\u0627\u0644\u0631\u0626\u0627", "4749": "\u2581\u0648\u062f\u0639\u0645", "4750": "\u2581\u064a\u0646\u0628\u063a\u064a", "4751": "is", "4752": "\u2581\u0644\u0644\u0645\u0648", "4753": "\u0639\u062f\u0629", "4754": "\u2581\u0631\u0642", "4755": "\u0627\u0644\u064a\u0628", "4756": "\u0632\u0648\u062c", "4757": "\u2581\u0627\u0644\u0645\u0642\u0631", "4758": "\u2581\u0645\u064a\u0634", "4759": "\u2581\u0628\u0627\u0644\u0641\u0639\u0644", "4760": "\u0631\u0627\u0633", "4761": "\u2581\u062b\u0627\u0646\u064a", "4762": "\u2581\u0644\u0623\u064a", "4763": "\u2581\u062a\u0648\u0642\u0639", "4764": "\u2581\u0642\u0648\u0649", "4765": "\u0643\u0644\u064a", "4766": "\u2581\u0645\u0627\u0644\u064a", "4767": "\u2581\u0627\u0644\u0648\u062b", "4768": "\u2581\u0627\u0644\u0632\u064a\u0627\u0631\u0629", "4769": "\u2581\u0622\u062e\u0631\u064a\u0646", "4770": "\u2581\u062c\u0645\u0647\u0648\u0631\u064a\u0629", "4771": "\u2581\u062e\u0631\u062c", "4772": "\u2581\u0623\u0633\u0631\u0629", "4773": "\u0642\u064a\u0627\u0645", "4774": "\u2581\u062a\u062f\u0631\u064a\u0628", "4775": "\u2581\u0633\u064a\u0627\u0631\u0627\u062a", "4776": "\u2581\u0627\u0644\u0625\u0639\u0644\u0627\u0646", "4777": "\u2581\u0641\u0627\u0639", "4778": "\u2581\u0627\u0644\u063a\u0630\u0627\u0626\u064a\u0629", "4779": "\u2581\u0633\u0627\u0646", "4780": "\u2581\u0646\u0627\u0633", "4781": "\u2581\u062a\u0639\u064a\u064a\u0646", "4782": "\u0628\u0627\u0639", "4783": "\u2581\u0630\u0643\u0631\u062a", "4784": "\u2581\u0645\u0644\u064a\u0627\u0631\u0627\u062a", "4785": "\u2581\u0648\u0623\u0645", "4786": "\u062a\u064a\u0627\u0644", "4787": "\u2581\u0627\u0644\u0625\u0646\u062a\u0631\u0646\u062a", "4788": "\u2581\u0648\u0627\u0633\u0639\u0629", "4789": "\u2581\u0627\u0644\u0627\u0645\u0631\u064a", "4790": "\u2581\u062f\u064a\u0648\u0627\u0646", "4791": "\u2581\u062d\u0641\u0638\u0647", "4792": "\u2581\u0643\u0631\u064a", "4793": "\u2581\u062c\u0645\u064a\u0644", "4794": "\u0627\u0644\u0641\u0627\u062a", "4795": "\u2581\u0648\u0641\u062f", "4796": "\u062f\u0631\u0633", "4797": "\u0632\u064a\u0645\u0629", "4798": "\u0632\u0632", "4799": "\u2581\u0627\u0644\u0645\u0646\u0632\u0644", "4800": "\u0639\u062f\u0644", "4801": "\u2581\u0645\u062a\u0623", "4802": "\u2581\u0627\u0644\u0628\u0631\u064a\u0637\u0627\u0646\u064a", "4803": "\u2581\u0644\u0623\u0648\u0644", "4804": "\u2581\u0627\u0644\u0645\u0634\u0627\u0643\u0644", "4805": "\u2581\u0648\u0627\u0644\u062a\u0623", "4806": "\u2581\u064a\u0642\u062a", "4807": "\u2581\u064a\u0633\u062a\u062e\u062f\u0645", "4808": "\u2581\u0627\u0644\u062a\u0646\u0641\u064a\u0630\u064a\u0629", "4809": "\u2581\u0628\u0642\u0648\u0629", "4810": "\u2581\u0627\u0644\u0634\u0631\u0639\u064a\u0629", "4811": "\u2581\u0645\u0633\u0628", "4812": "\u0639\u0631\u0641", "4813": "\u2581\u0627\u0644\u062f\u0639\u0648\u0629", "4814": "\u2581\u0627\u0644\u0633\u0627\u062f\u0633", "4815": "\u2581\u0627\u0644\u0642\u0633\u0645", "4816": "\u2581\u0627\u0644\u0641\u0639\u0644", "4817": "\u2581\u0627\u064a\u0627\u0645", "4818": "\u0631\u0627\u0643\u0629", "4819": "\u2581\u0644\u062f\u0639\u0645", "4820": "\u0630\u0627\u062a", "4821": "\u2581\u0646\u062c\u0645", "4822": "\u2581\u0627\u0644\u0634\u0645\u0627\u0644", "4823": "\u2581\u0637\u0646", "4824": "\u062f\u0627\u062e\u0644", "4825": "\u2581\u0627\u0644\u0625\u0631\u0647\u0627\u0628", "4826": "\u2581\u0627\u0644\u062f\u0627\u0626\u0631\u0629", "4827": "\u2581\u0639\u0627\u0634", "4828": "\u2581\u0627\u0644\u0645\u0648\u0627\u0642\u0639", "4829": "\u2581\u0627\u0644\u062d\u0627\u0643\u0645", "4830": "\u2581\u0648\u062d\u0648\u0644", "4831": "\u064a\u062a\u0647\u0645", "4832": "\u2581\u0644\u0643\u0645", "4833": "\u2581\u0627\u0644\u062c\u0627\u0626\u0632\u0629", "4834": "\u2581\u0627\u0644\u0634\u0627\u0628", "4835": "\u2581\u0627\u0644\u0645\u0645\u062a", "4836": "\u0643\u0646\u0648\u0644\u0648\u062c\u064a\u0627", "4837": "\u2581\u064a\u0636\u0645", "4838": "\u0643\u0646\u062f\u0631", "4839": "\u2581\u0642\u0635\u0629", "4840": "\u2581\u0627\u0644\u062a\u062d\u062f", "4841": "\u2581\u0648\u062a\u0633\u062a", "4842": "\u2581\u0627\u0644\u0642\u062d\u0637", "4843": "\u063a\u0631\u0628", "4844": "\u0648\u062a\u0647", "4845": "12", "4846": "\u2581\u0648\u0627\u062d\u062f\u0627", "4847": "\u2581\u0628\u0641\u0636\u0644", "4848": "\u2581\u0627\u0644\u0634\u0645\u0633", "4849": "\u2581\u0628\u0627\u0644\u0645\u0646\u0637\u0642\u0629", "4850": "\u0634\u0643", "4851": "\u2581\u0645\u0643\u0627\u0641\u062d\u0629", "4852": "\u2581\u0627\u0644\u0628\u062a\u0631", "4853": "\u2581\u0627\u0644\u0639\u064a\u062f", "4854": "\u2581\u0648\u062a\u0641", "4855": "\u2581\u062a\u0635\u0648\u064a\u0631", "4856": "\u2581\u0639\u0644\u0627\u062c", "4857": "ab", "4858": "\u2581\u062c\u0639", "4859": "\u2581\u0627\u0633\u062a\u062b\u0645", "4860": "\u2581\u0627\u0644\u0639\u0642\u0644", "4861": "\u2581\u062a\u062d\u0631\u064a\u0631", "4862": "\u2581\u0627\u0644\u062d\u0642\u0648\u0642", "4863": "\u2581\u0627\u0644\u0646\u062f", "4864": "\u2581\u0644\u0644\u0641\u0631\u064a\u0642", "4865": "\u2581\u0627\u0646\u0647\u0645", "4866": "\u062e\u0627\u0644", "4867": "\u2581\u062d\u064a\u0627\u062a\u0647", "4868": "\u063a\u0644\u0627\u0642", "4869": "\u2581\u0644\u0634\u0624\u0648\u0646", "4870": "\u0628\u0639\u0627\u062f", "4871": "\u2581\u0627\u0644\u0623\u0643\u0628\u0631", "4872": "\u0631\u062c\u0627\u062a", "4873": "\u2581\u0634\u0639\u0627\u0631", "4874": "\u062f\u064a\u0647", "4875": "\u2581\u0627\u0644\u0643\u062a\u0628", "4876": "ic", "4877": "\u2581\u0634\u0639\u0631", "4878": "\u2581\u0643\u0627\u0645\u0644\u0629", "4879": "\u2581\u0638\u0647\u0648\u0631", "4880": "\u2581\u0623\u0648\u0628", "4881": "\u2581\u0627\u0644\u0643\u0646", "4882": "\u063a\u062a", "4883": "\u2581\u0627\u0639\u0644\u0646", "4884": "\u2581\u0627\u0644\u0637\u0627\u0626\u0631\u0629", "4885": "\u0648\u0627\u0626\u064a\u0629", "4886": "\u2581\u0627\u0644\u062e\u0637\u0629", "4887": "\u2581\u0644\u0645\u062c\u0644\u0633", "4888": "\u0648\u0636\u062d\u062a", "4889": "\u2581\u062c\u0647\u062a\u0647", "4890": "\u063a\u0627\u0631", "4891": "\u2581\u0643\u0623\u0646", "4892": "\u2581\u0645\u062a\u0649", "4893": "\u2581\u064a\u0639\u062a\u0642\u062f", "4894": "\u0631\u0628\u064a\u0646", "4895": "\u2581\u062a\u0648\u0642\u064a\u0639", "4896": "\u2581\u0627\u0644\u062e\u0636", "4897": "\u2581\u0627\u0644\u0631\u0645", "4898": "\u258144", "4899": "\u0647\u0648\u0644\u0629", "4900": "\u2581\u0648\u0627\u062f", "4901": "\u2581\u0633\u0628\u0623\u0646\u062a", "4902": "\u2581\u0645\u0627\u064a", "4903": "\u2581\u0627\u0644\u062d\u0643\u0648\u0645\u064a", "4904": "\u2581\u0623\u0639\u062f", "4905": "\u2581\u0627\u0644\u0628\u0639", "4906": "\u2581\u0627\u0644\u0631\u0639\u0627\u064a\u0629", "4907": "\u2581\u0623\u062d\u062f\u0627\u062b", "4908": "\u0648\u0627\u0631\u0626", "4909": "\u2581\u0645\u0639\u0631\u0641\u0629", "4910": "\u2581\u0627\u0644\u0646\u0647", "4911": "\u0648\u0627\u0626\u0631", "4912": "\u0630\u0643\u0631\u0629", "4913": "\u2581\u0627\u0644\u0645\u0641\u0627\u0648\u0636\u0627\u062a", "4914": "\u2581\u0648\u0623\u0636\u0627\u0641\u062a", "4915": "\u2581\u0627\u0644\u064a\u0627\u0628\u0627\u0646", "4916": "\u2581\u062a\u0628\u0642\u0649", "4917": "\u2581\u0627\u0644\u0644\u0647\u0645", "4918": "\u2581\u0627\u0644\u0627\u0633\u062a\u0642\u0631\u0627\u0631", "4919": "\u2581\u0627\u0644\u0645\u0648\u0638\u0641\u064a\u0646", "4920": "\u0634\u0627\u0631\u064a\u0639", "4921": "\u2581\u0631\u0623\u064a", "4922": "\u2581\u0627\u0644\u0625\u0646\u062c\u0644\u064a", "4923": "\u0633\u0627\u0646\u064a", "4924": "\u2581\u0627\u0644\u0645\u062b\u0627\u0644", "4925": "\u2581\u0648\u062a\u0642\u062f\u064a\u0645", "4926": "\u2581\u0627\u0644\u0643\u0644\u064a\u0629", "4927": "\u2581\u0627\u0644\u0644\u062d", "4928": "\u2581\u0634\u062f\u064a\u062f", "4929": "\u2581\u0644\u0633\u0646\u0629", "4930": "\u2581\u0627\u0644\u0628\u064a\u0627\u0646\u0627\u062a", "4931": "\u2581\u0648\u0631\u0641\u0639", "4932": "\u2581\u0627\u0644\u0623\u062f\u0627\u0621", "4933": "\u2581\u0627\u0644\u0642\u0631\u0627\u0631\u0627\u062a", "4934": "\u2581\u0634\u0631\u0641", "4935": "\u0627\u0628\u064a\u0646", "4936": "\u2581\u064a\u0628\u0642\u0649", "4937": "\u2581\u0627\u0644\u062d\u0635", "4938": "\u2581\u062a\u0638\u0647\u0631", "4939": "\u2581\u062d\u0645\u0648\u062f", "4940": "\u0627\u0628\u064a\u0639", "4941": "\u2581\u0634\u0627\u0631\u0639", "4942": "\u0646\u0627\u062f\u064a", "4943": "\u2581\u0627\u0644\u062d\u0641\u0627\u0638", "4944": "\u2581\u0627\u0644\u0648\u0633", "4945": "\u2581\u0627\u0644\u062c\u0633\u0645", "4946": "\u2581\u0627\u0644\u062a\u0643", "4947": "\u2581\u0627\u0644\u0623\u0639\u0636\u0627\u0621", "4948": "\u0644\u064a\u0644\u0627", "4949": "\u2581\u062c\u0631\u0627\u0621", "4950": "\u0642\u064a\u0647", "4951": "\u2581192", "4952": "\u0643\u0627\u0641\u062d\u0629", "4953": "\u2581\u0639\u0648\u0636", "4954": "\u0644\u0627\u063a", "4955": "\u2581\u0627\u0644\u0627\u0633\u0645", "4956": "\u2581\u0638\u0631\u0648\u0641", "4957": "\u2581\u0627\u0644\u0645\u0633\u0644\u0633\u0644", "4958": "\u2581\u0627\u0644\u0627\u062e\u0631\u0649", "4959": "\u2581\u062a\u0633\u062a\u062e\u062f\u0645", "4960": "\u2581\u0625\u062c\u0631\u0627\u0621\u0627\u062a", "4961": "\u2581\u0623\u0643\u062f\u062a", "4962": "\u2581\u0648\u062a\u0631\u0643", "4963": "\u2581\u062c\u0627\u0632", "4964": "\u2581\u0627\u0644\u0642\u0648\u0627\u0646\u064a\u0646", "4965": "\u2581\u0645\u0637\u0627\u0644\u0628", "4966": "\u2581\u0648\u0627\u0642\u0639", "4967": "\u2581\u064a\u062d\u0642\u0642", "4968": "\u2581\u064a\u062e\u062a", "4969": "\u2581\u064a\u0628\u062f\u0623", "4970": "\u2581\u0639\u0637", "4971": "\u2581\u0627\u0644\u0644\u0639\u0628", "4972": "\u2581\u0627\u0644\u0641\u0626\u0629", "4973": "\u2581\u0627\u0644\u0645\u0633\u0627\u0628\u0642\u0629", "4974": "\u2581\u0642\u0631\u064a\u0628\u0627", "4975": "\u2581\u0627\u0644\u062f\u0643\u062a", "4976": "\u2581\u0627\u0644\u0637\u064a\u0631\u0627\u0646", "4977": "\u2581\u0628\u0623\u064a", "4978": "\u2581\u0627\u0644\u0627\u0646\u062a\u0631\u0646\u062a", "4979": "\u2581\u0630\u0647", "4980": "\u0641\u0633\u064a\u0631", "4981": "\u2581\u0633\u0642\u0637", "4982": "\u2581\u0627\u0644\u062c\u0645\u0627\u0647\u064a\u0631", "4983": "\u0633\u064a\u0645\u0627", "4984": "\u2581\u0648\u0627\u0644\u062a\u062c", "4985": "\u2581\u0627\u0646\u0642", "4986": "\u0643\u0644\u0627\u062a", "4987": "\u2581\u0628\u0639\u0636\u0647\u0627", "4988": "\u2581\u0627\u0637\u0627\u0631", "4989": "\u0628\u0644\u0629", "4990": "\u2581\u0627\u0644\u0627\u0631\u0628\u0639", "4991": "\u0632\u0627\u0644\u0629", "4992": "\u2581\u0627\u064a\u0647", "4993": "\u2581\u064a\u0641\u062a", "4994": "\u2581\u062d\u0635\u0644\u062a", "4995": "\u2581\u0627\u0644\u063a\u0627\u0645", "4996": "\u2581\u0643\u064a\u0641\u064a\u0629", "4997": "\u0645\u0627\u0644\u0643", "4998": "\u2581\u0627\u0644\u0642\u062d\u0637\u0627\u0646\u064a", "4999": "\u2581\u062a\u0633\u0645", "5000": "\u2581\u0627\u0644\u062d\u062f\u062b", "5001": "\u2581\u0623\u062b\u0631", "5002": "\u2581\u0627\u0644\u062f\u0627\u0631", "5003": "\u2581\u0639\u0644\u0627\u0645", "5004": "\u2581\u0623\u0633\u062a", "5005": "\u0639\u0644\u0645", "5006": "\u2581\u0627\u0644\u0623\u0634\u062e\u0627\u0635", "5007": "\u0644\u0627\u0639", "5008": "\u2581\u062e\u0644\u0627\u0644\u0647", "5009": "\u0644\u0627\u0628\u0633", "5010": "\u0637\u0628\u0642", "5011": "\u2581\u0627\u0644\u0644\u0642\u0628", "5012": "\u0635\u0641\u0627\u062a", "5013": "\u2581\u0627\u062d\u062f\u0649", "5014": "\u2581\u0644\u0644\u062a\u0623", "5015": "\u2581\u0627\u0644\u062d\u062f\u064a\u062f", "5016": "\u2581\u0623\u0637\u0641\u0627\u0644", "5017": "\u0643\u062a\u0627\u0628", "5018": "\u2581\u0627\u0644\u0645\u0631\u0629", "5019": "\u0631\u0627\u0628\u0644", "5020": "\u2581\u0623\u0637", "5021": "\u2581\u0627\u062e\u0631", "5022": "\u062f\u0631\u062c\u0629", "5023": "\u2581\u0628\u0633\u0631\u0639\u0629", "5024": "\u0644\u0645\u0627\u0646\u064a\u0629", "5025": "\u2581\u064a\u0639\u0627\u0646\u064a", "5026": "\u0641\u0631\u064a\u0642\u064a\u0629", "5027": "\u2581\u062b\u0642\u0627\u0641\u0629", "5028": "\u2581\u0644\u062a\u0642\u062f\u064a\u0645", "5029": "\u2581\u0627\u0644\u062b\u0627\u0646\u0648\u064a\u0629", "5030": "\u0631\u0627\u0648\u062d", "5031": "\u2581\u0627\u0644\u0627\u0639\u0645\u0627\u0644", "5032": "\u2581\u064a\u0634\u0627\u0631\u0643", "5033": "\u2581\u0627\u0644\u0634\u0639\u0628\u064a", "5034": "\u2581\u0628\u0627\u0633\u062a\u062e\u062f\u0627\u0645", "5035": "\u2581\u0627\u0644\u0635\u062d\u0627\u0641\u0629", "5036": "\u0643\u0627\u0646\u064a", "5037": "\u2581\u062a\u0646\u0645\u064a\u0629", "5038": "\u2581\u0628\u0642\u064a\u0629", "5039": "\u2581\u0623\u0637\u0644\u0642", "5040": "\u2581\u0627\u0644\u0645\u0639\u0631\u0648\u0641", "5041": "\u0646\u0627\u0647\u0627", "5042": "\u2581\u062d\u0628\u064a\u0628", "5043": "\u2581\u0645\u0642\u0627\u0637\u0639\u0629", "5044": "\u0627\u0631\u0636\u0629", "5045": "\u2581\u0627\u0644\u062a\u0627\u0628\u0639", "5046": "\u0634\u0631\u0637\u0629", "5047": "\u2581\u0630\u064a", "5048": "\u2581\u0627\u0644\u0635\u062d\u0641\u064a", "5049": "\u2581\u0627\u0644\u062d\u0642\u064a\u0642\u064a", "5050": "\u2581\u062a\u0633\u0639\u0649", "5051": "\u2581\u0644\u0644\u0645\u0624", "5052": "\u0647\u0644\u0627", "5053": "\u2581\u0648\u062c\u0644", "5054": "\u2581\u062a\u0641\u0627\u0635\u064a\u0644", "5055": "\u2581\u0627\u0644\u0639\u0635", "5056": "\u2581\u0646\u0646", "5057": "\u0642\u0627\u0641\u064a\u0629", "5058": "\u2581\u0645\u062f\u0627\u0631", "5059": "\u2581\u0636\u0645", "5060": "\u2581\u062a\u062d\u0648\u0644", "5061": "\u2581\u062a\u0634\u064a\u0631", "5062": "\u2581\u062d\u0627\u0645", "5063": "\u2581\u0628\u0627\u0644\u0631\u064a\u0627\u0636", "5064": "\u2581\u0628\u0627\u0644\u062e", "5065": "\u2581\u0645\u0633\u0627\u0628\u0642\u0629", "5066": "\u2581\u0627\u0644\u0635\u062d\u064a\u0641\u0629", "5067": "\u2581\u0645\u062a\u0639\u062f\u062f\u0629", "5068": "\u2581\u0645\u0637\u0644\u0639", "5069": "\u2581\u0639\u0642\u0648\u062f", "5070": "\u0627\u0631\u064a\u0648", "5071": "\u2581\u0627\u0644\u0645\u0648\u062c\u0648\u062f\u0629", "5072": "\u2581\u0627\u0644\u0637\u0628\u064a\u0639\u064a\u0629", "5073": "\u062e\u0635\u0635\u0627\u062a", "5074": "\u2581\u0648\u0627\u0644\u062a\u0642", "5075": "\u2581\u0639\u0633\u0643\u0631\u064a\u0629", "5076": "\u2581\u0648\u0631\u0648", "5077": "\u2581\u062d\u0648\u0627\u0631", "5078": "\u2581\u0627\u0644\u0642\u062f\u0631\u0629", "5079": "\u2581\u0627\u0644\u0628\u0642", "5080": "\u2581\u0627\u0644\u0633\u064a\u0627\u062d\u064a\u0629", "5081": "\u2581\u062a\u0639\u062f\u064a\u0644", "5082": "\u2581\u0645\u0646\u0632", "5083": "\u2581\u0623\u0633\u0645\u0627\u0621", "5084": "\u2581\u0627\u0644\u0627\u0633\u062a\u0641\u0627\u062f\u0629", "5085": "\u062d\u0627\u0645", "5086": "\u2581\u0639\u0648\u062f", "5087": "\u2581\u0627\u0644\u0623\u0645\u0648\u0627\u0644", "5088": "\u0636\u0639\u0641", "5089": "\u2581\u062b\u0627\u0628\u062a", "5090": "\u2581\u0648\u0648\u0641", "5091": "\u2581\u0631\u0627\u0641", "5092": "\u2581\u0627\u062a\u062e\u0630", "5093": "\u0636\u0645\u0627\u0645", "5094": "\u2581\u0644\u0645\u0633", "5095": "\u2581\u0623\u0645\u0631\u064a\u0643\u0627", "5096": "\u0643\u0648\u0631", "5097": "\u2581\u0631\u0626\u0627\u0633\u0629", "5098": "\u062d\u062f\u0627\u062a", "5099": "\u2581\u0639\u064a", "5100": "\u0644\u0648", "5101": "\u2581\u0627\u0644\u0648\u0627\u0642\u0639\u0629", "5102": "\u2581\u0627\u0644\u0639\u0627\u0626\u0644\u0627\u062a", "5103": "\u0648\u0627\u0646\u0627\u062a", "5104": "\u2581\u0627\u0644\u0634\u0623\u0646", "5105": "\u2581\u0635\u0631\u0641", "5106": "\u2581\u0625\u0642\u0644\u064a\u0645", "5107": "\u0645\u062b\u0644", "5108": "\u0634\u0631\u064a", "5109": "\u2581\u0627\u0644\u0635\u062f", "5110": "\u2581\u062d\u0627\u0648\u0644", "5111": "\u2581\u0638\u0627\u0647\u0631\u0629", "5112": "\u2581\u0627\u0644\u0642\u064a\u0645\u0629", "5113": "\u2581\u0627\u0644\u064a\u0645\u0646\u064a\u0629", "5114": "\u2581\u0647\u0648\u0644", "5115": "\u0639\u0644\u0647", "5116": "\u2581\u0627\u0644\u0646\u0648\u0648\u064a\u0629", "5117": "\u0646\u0627\u0637\u0642", "5118": "\u2581\u0635\u0628\u0627", "5119": "\u2581\u0627\u0644\u0633\u0644\u0627\u062d", "5120": "\u0643\u0648\u064a\u0646", "5121": "\u2581\u0642\u0631\u0631\u062a", "5122": "\u2581\u0641\u0627\u0631", "5123": "\u0641\u064a\u0636", "5124": "\u2581\u062c\u0627\u0647", "5125": "11", "5126": "\u258155", "5127": "\u2581\u0627\u0644\u0625\u062f\u0627\u0631\u064a\u0629", "5128": "\u0627\u062c\u0631", "5129": "\u062e\u0645\u0629", "5130": "\u2581\u0631\u0633\u0645\u064a\u0627", "5131": "\u2581\u0627\u0644\u062e\u0633", "5132": "\u2581\u0644\u0627\u0639\u0628\u064a", "5133": "\u2581\u0648\u0627\u0644\u0645\u0634", "5134": "\u2581\u0648\u0641\u0627\u0629", "5135": "\u2581\u062e\u0637\u0637", "5136": "\u0646\u0627\u062f\u064a\u0642", "5137": "\u0643\u0649", "5138": "\u2581\u0627\u0644\u0646\u0648\u0645", "5139": "\u2581\u0627\u0644\u0641\u0631\u0635", "5140": "\u258146", "5141": "\u2581\u0627\u0644\u0633\u0624\u0627\u0644", "5142": "\u064a\u0627\u062a\u0647", "5143": "\u0644\u0648\u0646", "5144": "\u2581\u0645\u062c\u0644\u0629", "5145": "\u2581\u0637\u0631\u0642", "5146": "\u0645\u0648\u0644", "5147": "\u063a\u0648", "5148": "\u2581\u0631\u0626\u064a\u0633\u0627", "5149": "\u2581\u062a\u062a\u0639\u0644\u0642", "5150": "\u2581\u0627\u0644\u0645\u0635\u0631\u064a\u064a\u0646", "5151": "\u2581\u062b\u0627\u0644\u062b", "5152": "\u2581\u0627\u0644\u0645\u0648\u0633\u064a", "5153": "\u2581\u0644\u063a\u0629", "5154": "\u0644\u0633", "5155": "\u25812014", "5156": "\u2581\u0639\u0634\u0627\u0646", "5157": "\u258143", "5158": "\u0648\u0646\u0627\u062a", "5159": "\u2581\u062f\u0639\u0648\u0629", "5160": "\u2581\u0645\u062c\u0645\u0639", "5161": "\u2581\u0645\u0646\u0647\u0645\u0627", "5162": "\u062d\u062a\u0627\u062c", "5163": "\u2581\u0627\u0644\u062a\u0627\u0644\u064a", "5164": "\u0635\u064a\u0628", "5165": "\u2581\u0639\u0627\u0626\u0644\u0629", "5166": "\u2581\u0645\u0648\u0627\u062f", "5167": "\u2581\u0627\u0644\u062f\u064a", "5168": "\u2581\u0648\u0639\u0644\u064a", "5169": "\u2581\u0623\u062e\u0628\u0631", "5170": "\u0643\u0643", "5171": "\u2581\u0627\u0644\u062f\u0648\u0633", "5172": "\u2581\u0625\u0639\u0644\u0627\u0645", "5173": "\u2581\u0628\u0627\u0644\u0645\u0639", "5174": "\u2581\u0633\u0642\u0648\u0637", "5175": "\u2581\u062a\u0639\u0627\u0648\u0646", "5176": "\u2581\u0644\u064a\u0644\u0629", "5177": "\u0648\u0632\u0639", "5178": "\u2581\u0627\u0644\u0628\u062e\u0627\u0631\u064a", "5179": "\u062f\u064a\u0642\u0629", "5180": "\u2581\u0648\u0622\u062e\u0631", "5181": "\u2581\u0645\u0628\u0646\u0649", "5182": "\u0627\u0648\u0644", "5183": "\u2581\u0645\u0648\u062c\u0648\u062f", "5184": "\u2581\u0627\u0644\u0627\u0633\u062a\u0631\u0627\u062a\u064a\u062c\u064a\u0629", "5185": "\u2581\u0627\u0644\u0645\u0631\u0643\u0632\u064a\u0629", "5186": "\u2581\u0647\u062c\u0648\u0645", "5187": "\u2581\u0627\u0644\u0645\u0628\u0627\u062f\u0631\u0629", "5188": "\u2581\u0628\u0645\u0634\u0627\u0631\u0643\u0629", "5189": "\u0648\u0639\u064a", "5190": "\u2581\u0646\u0637\u0627\u0642", "5191": "\u0648\u0628\u0627", "5192": "\u2581\u0641\u0631\u062d", "5193": "\u2581\u0627\u0644\u0639\u0645\u0648\u0645\u064a\u0629", "5194": "\u2581\u0627\u0644\u0628\u0631\u0627\u0632\u064a\u0644\u064a", "5195": "\u2581\u062e\u0644\u064a\u0644", "5196": "\u2581\u062c\u0627\u0633\u0645", "5197": "\u2581\u0627\u0644\u0645\u0639\u0627\u0631\u0636", "5198": "\u2581\u0648\u0642\u0628\u0644", "5199": "\u2581\u0645\u0642\u062a", "5200": "\u2581\u0645\u0646\u0627\u0633\u0628\u0629", "5201": "\u2581\u0645\u0648\u0638", "5202": "\u0634\u0631\u0642", "5203": "\u2581\u0636\u0639\u0641", "5204": "\u0648\u062d\u064a\u062f", "5205": "\u0627\u0644\u062c", "5206": "\u0627\u0646\u0645", "5207": "\u2581\u0627\u0644\u0645\u062a\u0637", "5208": "\u2581\u0648\u0645\u0634", "5209": "\u2581\u0642\u062f\u0631\u0629", "5210": "\u2581\u0627\u0644\u0627\u0633\u062a\u062b\u0645\u0627\u0631\u0627\u062a", "5211": "\u2581\u064a\u062d\u0627\u0648\u0644", "5212": "\u2581\u0648\u0627\u0644\u0627\u0642\u062a\u0635\u0627\u062f", "5213": "\u2581\u0645\u062c\u062f\u062f\u0627", "5214": "\u2581\u0644\u062a\u0634", "5215": "\u2581\u0628\u0648\u062a", "5216": "\u0635\u062f\u0642\u0627\u0621", "5217": "\u2581\u0643\u0648\u0646\u0627", "5218": "\u2581\u0645\u0631\u0627\u062d\u0644", "5219": "\u0647\u0644\u0627\u0643", "5220": "\u0648\u0642\u064a\u0639", "5221": "\u0634\u064a\u0629",
[...]
